{
  "version": "1.0",
  "truncation": null,
  "padding": null,
  "added_tokens": [
    {
      "id": 0,
      "content": "<unk>",
      "single_word": false,
      "lstrip": false,
      "rstrip": false,
      "normalized": false,
      "special": true
    },
    {
      "id": 1,
      "content": "<|endoftext|>",
      "single_word": false,
      "lstrip": false,
      "rstrip": false,
      "normalized": false,
      "special": true
    },
    {
      "id": 2,
      "content": "<bos>",
      "single_word": false,
      "lstrip": false,
      "rstrip": false,
      "normalized": false,
      "special": true
    },
    {
      "id": 3,
      "content": "<pad>",
      "single_word": false,
      "lstrip": false,
      "rstrip": false,
      "normalized": false,
      "special": true
    },
    {
      "id": 81600,
      "content": "  ",
      "single_word": false,
      "lstrip": false,
      "rstrip": false,
      "normalized": true,
      "special": false
    },
    {
      "id": 81601,
      "content": "   ",
      "single_word": false,
      "lstrip": false,
      "rstrip": false,
      "normalized": true,
      "special": false
    },
    {
      "id": 81602,
      "content": "    ",
      "single_word": false,
      "lstrip": false,
      "rstrip": false,
      "normalized": true,
      "special": false
    },
    {
      "id": 81603,
      "content": "     ",
      "single_word": false,
      "lstrip": false,
      "rstrip": false,
      "normalized": true,
      "special": false
    },
    {
      "id": 81604,
      "content": "      ",
      "single_word": false,
      "lstrip": false,
      "rstrip": false,
      "normalized": true,
      "special": false
    },
    {
      "id": 81605,
      "content": "       ",
      "single_word": false,
      "lstrip": false,
      "rstrip": false,
      "normalized": true,
      "special": false
    },
    {
      "id": 81606,
      "content": "        ",
      "single_word": false,
      "lstrip": false,
      "rstrip": false,
      "normalized": true,
      "special": false
    },
    {
      "id": 81607,
      "content": "         ",
      "single_word": false,
      "lstrip": false,
      "rstrip": false,
      "normalized": true,
      "special": false
    },
    {
      "id": 81608,
      "content": "          ",
      "single_word": false,
      "lstrip": false,
      "rstrip": false,
      "normalized": true,
      "special": false
    },
    {
      "id": 81609,
      "content": "           ",
      "single_word": false,
      "lstrip": false,
      "rstrip": false,
      "normalized": true,
      "special": false
    },
    {
      "id": 81610,
      "content": "            ",
      "single_word": false,
      "lstrip": false,
      "rstrip": false,
      "normalized": true,
      "special": false
    },
    {
      "id": 81611,
      "content": "             ",
      "single_word": false,
      "lstrip": false,
      "rstrip": false,
      "normalized": true,
      "special": false
    },
    {
      "id": 81612,
      "content": "              ",
      "single_word": false,
      "lstrip": false,
      "rstrip": false,
      "normalized": true,
      "special": false
    },
    {
      "id": 81613,
      "content": "               ",
      "single_word": false,
      "lstrip": false,
      "rstrip": false,
      "normalized": true,
      "special": false
    },
    {
      "id": 81614,
      "content": "                ",
      "single_word": false,
      "lstrip": false,
      "rstrip": false,
      "normalized": true,
      "special": false
    },
    {
      "id": 81615,
      "content": "                 ",
      "single_word": false,
      "lstrip": false,
      "rstrip": false,
      "normalized": true,
      "special": false
    },
    {
      "id": 81616,
      "content": "                  ",
      "single_word": false,
      "lstrip": false,
      "rstrip": false,
      "normalized": true,
      "special": false
    },
    {
      "id": 81617,
      "content": "                   ",
      "single_word": false,
      "lstrip": false,
      "rstrip": false,
      "normalized": true,
      "special": false
    },
    {
      "id": 81618,
      "content": "                    ",
      "single_word": false,
      "lstrip": false,
      "rstrip": false,
      "normalized": true,
      "special": false
    },
    {
      "id": 81619,
      "content": "                     ",
      "single_word": false,
      "lstrip": false,
      "rstrip": false,
      "normalized": true,
      "special": false
    },
    {
      "id": 81620,
      "content": "                      ",
      "single_word": false,
      "lstrip": false,
      "rstrip": false,
      "normalized": true,
      "special": false
    },
    {
      "id": 81621,
      "content": "                       ",
      "single_word": false,
      "lstrip": false,
      "rstrip": false,
      "normalized": true,
      "special": false
    }
  ],
  "normalizer": null,
  "pre_tokenizer": {
    "type": "Sequence",
    "pretokenizers": [
      {
        "type": "Split",
        "pattern": {
          "Regex": " ?[^(\\s|[.,!?…。，、।۔،？；’：！（）——:])]+"
        },
        "behavior": "Isolated",
        "invert": false
      },
      {
        "type": "Digits",
        "individual_digits": true
      },
      {
        "type": "ByteLevel",
        "add_prefix_space": false,
        "trim_offsets": true,
        "use_regex": true
      }
    ]
  },
  "post_processor": null,
  "decoder": {
    "type": "ByteLevel",
    "add_prefix_space": true,
    "trim_offsets": true,
    "use_regex": true
  },
  "model": {
    "type": "BPE",
    "dropout": null,
    "unk_token": "<unk>",
    "continuing_subword_prefix": null,
    "end_of_word_suffix": null,
    "fuse_unk": false,
    "vocab": {
      "<unk>": 0,
      "<|endoftext|>": 1,
      "<bos>": 2,
      "<pad>": 3,
      "!": 4,
      "\"": 5,
      "#": 6,
      "$": 7,
      "%": 8,
      "&": 9,
      "'": 10,
      "(": 11,
      ")": 12,
      "*": 13,
      "+": 14,
      ",": 15,
      "-": 16,
      ".": 17,
      "/": 18,
      "0": 19,
      "1": 20,
      "2": 21,
      "3": 22,
      "4": 23,
      "5": 24,
      "6": 25,
      "7": 26,
      "8": 27,
      "9": 28,
      ":": 29,
      ";": 30,
      "<": 31,
      "=": 32,
      ">": 33,
      "?": 34,
      "@": 35,
      "A": 36,
      "B": 37,
      "C": 38,
      "D": 39,
      "E": 40,
      "F": 41,
      "G": 42,
      "H": 43,
      "I": 44,
      "J": 45,
      "K": 46,
      "L": 47,
      "M": 48,
      "N": 49,
      "O": 50,
      "P": 51,
      "Q": 52,
      "R": 53,
      "S": 54,
      "T": 55,
      "U": 56,
      "V": 57,
      "W": 58,
      "X": 59,
      "Y": 60,
      "Z": 61,
      "[": 62,
      "\\": 63,
      "]": 64,
      "^": 65,
      "_": 66,
      "`": 67,
      "a": 68,
      "b": 69,
      "c": 70,
      "d": 71,
      "e": 72,
      "f": 73,
      "g": 74,
      "h": 75,
      "i": 76,
      "j": 77,
      "k": 78,
      "l": 79,
      "m": 80,
      "n": 81,
      "o": 82,
      "p": 83,
      "q": 84,
      "r": 85,
      "s": 86,
      "t": 87,
      "u": 88,
      "v": 89,
      "w": 90,
      "x": 91,
      "y": 92,
      "z": 93,
      "{": 94,
      "|": 95,
      "}": 96,
      "~": 97,
      "¡": 98,
      "¢": 99,
      "£": 100,
      "¤": 101,
      "¥": 102,
      "¦": 103,
      "§": 104,
      "¨": 105,
      "©": 106,
      "ª": 107,
      "«": 108,
      "¬": 109,
      "®": 110,
      "¯": 111,
      "°": 112,
      "±": 113,
      "²": 114,
      "³": 115,
      "´": 116,
      "µ": 117,
      "¶": 118,
      "·": 119,
      "¸": 120,
      "¹": 121,
      "º": 122,
      "»": 123,
      "¼": 124,
      "½": 125,
      "¾": 126,
      "¿": 127,
      "Â": 128,
      "Ã": 129,
      "Ä": 130,
      "Å": 131,
      "Æ": 132,
      "Ç": 133,
      "È": 134,
      "É": 135,
      "Ê": 136,
      "Ë": 137,
      "Ì": 138,
      "Í": 139,
      "Î": 140,
      "Ï": 141,
      "Ð": 142,
      "Ñ": 143,
      "Ò": 144,
      "Ó": 145,
      "Ô": 146,
      "Õ": 147,
      "Ö": 148,
      "×": 149,
      "Ø": 150,
      "Ù": 151,
      "Ú": 152,
      "Û": 153,
      "Ü": 154,
      "Ý": 155,
      "Þ": 156,
      "ß": 157,
      "à": 158,
      "á": 159,
      "â": 160,
      "ã": 161,
      "ä": 162,
      "å": 163,
      "æ": 164,
      "ç": 165,
      "è": 166,
      "é": 167,
      "ê": 168,
      "ë": 169,
      "ì": 170,
      "í": 171,
      "î": 172,
      "ï": 173,
      "ð": 174,
      "ñ": 175,
      "ò": 176,
      "ó": 177,
      "ô": 178,
      "Ā": 179,
      "ā": 180,
      "Ă": 181,
      "ă": 182,
      "Ą": 183,
      "ą": 184,
      "Ć": 185,
      "ć": 186,
      "Ĉ": 187,
      "ĉ": 188,
      "Ċ": 189,
      "ċ": 190,
      "Č": 191,
      "č": 192,
      "Ď": 193,
      "ď": 194,
      "Đ": 195,
      "đ": 196,
      "Ē": 197,
      "ē": 198,
      "Ĕ": 199,
      "ĕ": 200,
      "Ė": 201,
      "ė": 202,
      "Ę": 203,
      "ę": 204,
      "Ě": 205,
      "ě": 206,
      "Ĝ": 207,
      "ĝ": 208,
      "Ğ": 209,
      "ğ": 210,
      "Ġ": 211,
      "ġ": 212,
      "Ģ": 213,
      "ģ": 214,
      "Ĥ": 215,
      "ĥ": 216,
      "Ħ": 217,
      "ħ": 218,
      "Ĩ": 219,
      "ĩ": 220,
      "Ī": 221,
      "ī": 222,
      "Ĭ": 223,
      "ĭ": 224,
      "Į": 225,
      "į": 226,
      "İ": 227,
      "ı": 228,
      "Ĳ": 229,
      "ĳ": 230,
      "Ĵ": 231,
      "ĵ": 232,
      "Ķ": 233,
      "ķ": 234,
      "ĸ": 235,
      "Ĺ": 236,
      "ĺ": 237,
      "Ļ": 238,
      "ļ": 239,
      "Ľ": 240,
      "ľ": 241,
      "Ŀ": 242,
      "ŀ": 243,
      "Ł": 244,
      "ł": 245,
      "Ń": 246,
      "Ġt": 247,
      "ĠĠ": 248,
      "Ġa": 249,
      "in": 250,
      "he": 251,
      "re": 252,
      "on": 253,
      "er": 254,
      "Ġthe": 255,
      "at": 256,
      "Ġs": 257,
      "en": 258,
      "Ġo": 259,
      "ãĢ": 260,
      "Ġc": 261,
      "ĠĠĠĠ": 262,
      "Ġw": 263,
      "or": 264,
      "it": 265,
      "ä¸": 266,
      "is": 267,
      "es": 268,
      "ed": 269,
      "an": 270,
      "Ġp": 271,
      "al": 272,
      "Ġf": 273,
      "Ġb": 274,
      "ing": 275,
      "Ġan": 276,
      "ï¼": 277,
      "Ġin": 278,
      "Ġm": 279,
      "ar": 280,
      "ou": 281,
      "ion": 282,
      "Ġof": 283,
      "Ġd": 284,
      "ic": 285,
      "le": 286,
      "Ġto": 287,
      "Ġand": 288,
      "as": 289,
      "ro": 290,
      "ï¼Į": 291,
      "äº": 292,
      "ent": 293,
      "ct": 294,
      "Ġh": 295,
      "et": 296,
      "âĢ": 297,
      "Ġth": 298,
      "st": 299,
      "çļ": 300,
      "Ġre": 301,
      "çļĦ": 302,
      "el": 303,
      "om": 304,
      "Ġn": 305,
      "åı": 306,
      "Ġe": 307,
      "Ġl": 308,
      "il": 309,
      "æľ": 310,
      "åħ": 311,
      "id": 312,
      "å¤": 313,
      "im": 314,
      "å®": 315,
      "ĠT": 316,
      "ut": 317,
      "am": 318,
      "Ġg": 319,
      "ve": 320,
      "ot": 321,
      "ig": 322,
      "ĠĠĠĠĠĠĠĠ": 323,
      "Ġ(": 324,
      "Ġis": 325,
      "ol": 326,
      "ä»": 327,
      "ĠI": 328,
      "ãĢĳ": 329,
      "ãĢĲ": 330,
      "ur": 331,
      "ation": 332,
      "ĠĠĠ": 333,
      "ãĢĤ": 334,
      "ac": 335,
      "åĪ": 336,
      "ãĢĳãĢĲ": 337,
      "us": 338,
      "--": 339,
      "Ġfor": 340,
      "ly": 341,
      "ow": 342,
      "Ġbe": 343,
      "ĠS": 344,
      "ad": 345,
      "un": 346,
      "¿½": 347,
      "ĠA": 348,
      "ay": 349,
      "Ġon": 350,
      "Ġst": 351,
      "ï¿½": 352,
      "if": 353,
      "ul": 354,
      "ĠC": 355,
      "ith": 356,
      "ver": 357,
      "åľ": 358,
      "Ġy": 359,
      "ä½": 360,
      "ce": 361,
      "od": 362,
      "åĲ": 363,
      "Ġthat": 364,
      "ä¹": 365,
      "è¿": 366,
      "se": 367,
      "æĸ": 368,
      "æĺ": 369,
      "ch": 370,
      "Ġwith": 371,
      "æĪ": 372,
      "Ġcon": 373,
      "ir": 374,
      "çĶ": 375,
      "åĽ": 376,
      "æĹ": 377,
      "ĉĉ": 378,
      "ag": 379,
      "ter": 380,
      "Ġas": 381,
      "åĬ": 382,
      "å¹": 383,
      "åį": 384,
      "her": 385,
      "pp": 386,
      "Ġpro": 387,
      "em": 388,
      "Ġyou": 389,
      "ãĢģ": 390,
      "ab": 391,
      "å°": 392,
      "ç»": 393,
      "ri": 394,
      "ĠM": 395,
      "Ġv": 396,
      "Ġal": 397,
      "um": 398,
      "ate": 399,
      "pe": 400,
      "ä¸Ģ": 401,
      "ĠP": 402,
      "Ġit": 403,
      "res": 404,
      "Ġ{": 405,
      "qu": 406,
      "ĠThe": 407,
      "Ġ=": 408,
      "Ġwe": 409,
      "è®": 410,
      "Ġor": 411,
      "ç½": 412,
      "è¯": 413,
      "ra": 414,
      "Ġwh": 415,
      "æĿ": 416,
      "Ġex": 417,
      "os": 418,
      "Ġ$": 419,
      "Ġcom": 420,
      "Ġde": 421,
      "ĠB": 422,
      "ist": 423,
      "æī": 424,
      "ä¼": 425,
      "Ġhe": 426,
      "ess": 427,
      "Ġ\"": 428,
      "ht": 429,
      "ĠF": 430,
      "est": 431,
      "oc": 432,
      "å¸": 433,
      "Ġwas": 434,
      "Ġare": 435,
      "åŃ": 436,
      "th": 437,
      "æĺ¯": 438,
      "å·": 439,
      "ers": 440,
      "ĠH": 441,
      "Ġat": 442,
      "å¤§": 443,
      "Ġse": 444,
      "å¼": 445,
      "Ġr": 446,
      "å½": 447,
      "ill": 448,
      "âĢĻ": 449,
      "Ġsu": 450,
      "ç½ĳ": 451,
      "op": 452,
      "çī": 453,
      "äºº": 454,
      "rom": 455,
      "and": 456,
      "ĠD": 457,
      "ction": 458,
      "ore": 459,
      "éĩ": 460,
      "ke": 461,
      "åĩ": 462,
      "ant": 463,
      "åľ¨": 464,
      "ity": 465,
      "----": 466,
      "iv": 467,
      "Ġby": 468,
      "ĠW": 469,
      "ain": 470,
      "oun": 471,
      "Ġ\\": 472,
      "pt": 473,
      "ï¿½ï¿½": 474,
      "âĢľ": 475,
      "ĠR": 476,
      "èµ": 477,
      "âĢĿ": 478,
      "ment": 479,
      "åĨ": 480,
      "æĬ": 481,
      "ort": 482,
      "æľī": 483,
      "çĽ": 484,
      "Ġ*": 485,
      "ĠĠĠĠĠĠĠ": 486,
      "ä¸Ń": 487,
      "åº": 488,
      "ld": 489,
      "ĠL": 490,
      "åĮ": 491,
      "éĢ": 492,
      "ive": 493,
      "ä¸į": 494,
      "Ġus": 495,
      "Ġne": 496,
      "==": 497,
      "end": 498,
      "ĠN": 499,
      "Ġha": 500,
      "te": 501,
      "Ġfrom": 502,
      "ure": 503,
      "ff": 504,
      "è¡": 505,
      "çİ": 506,
      "art": 507,
      "å¾": 508,
      "ĠE": 509,
      "ud": 510,
      "pl": 511,
      "Ġsh": 512,
      "ine": 513,
      "äºĨ": 514,
      "Ġnot": 515,
      "ight": 516,
      "å¿": 517,
      "Ġthis": 518,
      "ĠG": 519,
      "åıĳ": 520,
      "ren": 521,
      "Ġch": 522,
      "å±": 523,
      "å¥": 524,
      "è½": 525,
      "èĢ": 526,
      "éĹ": 527,
      "åĽ½": 528,
      "Ġun": 529,
      "è´": 530,
      "åİ": 531,
      "ell": 532,
      "æ³": 533,
      "ated": 534,
      "ial": 535,
      "å¯": 536,
      "éĻ": 537,
      "ies": 538,
      "ect": 539,
      "red": 540,
      "all": 541,
      "**": 542,
      "//": 543,
      "è§": 544,
      "per": 545,
      "æķ": 546,
      "Ġcan": 547,
      "iz": 548,
      "ame": 549,
      "og": 550,
      "cl": 551,
      "Ġle": 552,
      "çº": 553,
      "ust": 554,
      "æµ": 555,
      "age": 556,
      "ĠO": 557,
      "ç«": 558,
      "our": 559,
      "æ°": 560,
      "Ġhave": 561,
      "ä¸Ĭ": 562,
      "ï¼ļ": 563,
      "å¹´": 564,
      "ge": 565,
      "ue": 566,
      "çľ": 567,
      "æ¸": 568,
      "æĹ¶": 569,
      "ç§": 570,
      "æĶ": 571,
      "æł": 572,
      "ĥ½": 573,
      "æŃ": 574,
      "ical": 575,
      "ack": 576,
      "Ġcomp": 577,
      "ie": 578,
      "ard": 579,
      "åĴ": 580,
      "ide": 581,
      "able": 582,
      "ould": 583,
      "ĠIn": 584,
      "Ġtr": 585,
      "ass": 586,
      "èĤ": 587,
      "ä¸ĭ": 588,
      "out": 589,
      "æĢ": 590,
      "ich": 591,
      "Ġk": 592,
      "ä¿": 593,
      "orm": 594,
      "ult": 595,
      "Ġcl": 596,
      "ib": 597,
      "..": 598,
      "ä¸º": 599,
      "up": 600,
      "Ġ-": 601,
      "åĪĨ": 602,
      "Ġab": 603,
      "de": 604,
      "Ġres": 605,
      "ap": 606,
      "ase": 607,
      "åĴĮ": 608,
      "ost": 609,
      "ans": 610,
      "Ġpl": 611,
      "ome": 612,
      "der": 613,
      "åĳ": 614,
      "ast": 615,
      "æ²": 616,
      "æŀ": 617,
      "Ġcont": 618,
      "ip": 619,
      "Ġme": 620,
      "ice": 621,
      "ther": 622,
      "Ġwhe": 623,
      "çĲ": 624,
      "Ġim": 625,
      "Ġad": 626,
      "ĠĠĠĠĠĠĠĠĠĠĠĠĠĠĠĠ": 627,
      "éĿ": 628,
      "cc": 629,
      "æİ": 630,
      "Ġall": 631,
      "Ġ}": 632,
      "ition": 633,
      "ound": 634,
      "=\"": 635,
      "å®¶": 636,
      "èĩ": 637,
      "ub": 638,
      "Ġint": 639,
      "Ġ<": 640,
      "act": 641,
      "int": 642,
      "æĿ¥": 643,
      "Ġj": 644,
      "'s": 645,
      "ign": 646,
      ").": 647,
      "ok": 648,
      "åħ¬": 649,
      "ak": 650,
      "ä¼ļ": 651,
      "con": 652,
      "æĸ°": 653,
      "ind": 654,
      "Ġen": 655,
      "ace": 656,
      "ĠJ": 657,
      "``": 658,
      "æĭ": 659,
      "ä»¥": 660,
      "åĵ": 661,
      "oug": 662,
      "),": 663,
      "ä¸ļ": 664,
      "ous": 665,
      "ile": 666,
      "çĶŁ": 667,
      "ĠU": 668,
      "ong": 669,
      "ä¸ª": 670,
      "one": 671,
      "è¦": 672,
      "Ġar": 673,
      "Ġyour": 674,
      "du": 675,
      "æĪĳ": 676,
      "æľº": 677,
      "æĸ¹": 678,
      "é¢": 679,
      "Ġwhich": 680,
      "Ġ_": 681,
      "ime": 682,
      "Ġdo": 683,
      "ents": 684,
      "åŁ": 685,
      "ru": 686,
      "æ±": 687,
      "è¡Į": 688,
      "Ġwor": 689,
      "Ġwill": 690,
      "urn": 691,
      "å¼Ģ": 692,
      "ite": 693,
      "ary": 694,
      "fe": 695,
      "Ġapp": 696,
      "Ġif": 697,
      "Ġwere": 698,
      "å½©": 699,
      "éĺ": 700,
      "Ġout": 701,
      "The": 702,
      "åī": 703,
      "Ġdis": 704,
      "ph": 705,
      "--------": 706,
      "ress": 707,
      "è¾": 708,
      "Ġbut": 709,
      "æ¬": 710,
      "Ġone": 711,
      "çĶ¨": 712,
      "å¤©": 713,
      "ä½ľ": 714,
      "ens": 715,
      "ations": 716,
      "è¦ģ": 717,
      "åĪ°": 718,
      "åĩº": 719,
      "ance": 720,
      "çĻ": 721,
      "xt": 722,
      "form": 723,
      "å®ĺ": 724,
      "å¸Ĥ": 725,
      "çŃ": 726,
      "ç¥": 727,
      "æĥ": 728,
      "Ġhas": 729,
      "čĊ": 730,
      "ty": 731,
      "è¿Ļ": 732,
      "åŃ¦": 733,
      "åĿ": 734,
      "åľ°": 735,
      "ia": 736,
      "com": 737,
      "éģ": 738,
      "ach": 739,
      "av": 740,
      "Ġper": 741,
      "æ¯": 742,
      "æĮ": 743,
      "ĠTh": 744,
      "ire": 745,
      "å¹³": 746,
      "ber": 747,
      "Ġ&": 748,
      "ref": 749,
      "ear": 750,
      "æĹ¥": 751,
      "Ġso": 752,
      "ä½ĵ": 753,
      "Ġhis": 754,
      "èĥ½": 755,
      "ry": 756,
      "so": 757,
      "æĪĲ": 758,
      "å·¥": 759,
      "ang": 760,
      "æīĭ": 761,
      "æ´": 762,
      "port": 763,
      "Ġgo": 764,
      "ally": 765,
      "ata": 766,
      "ough": 767,
      "ence": 768,
      "éĽ": 769,
      "====": 770,
      "ions": 771,
      "Ġqu": 772,
      "Ġup": 773,
      "rent": 774,
      "own": 775,
      "çĤ": 776,
      "Ġ[": 777,
      "Ġmore": 778,
      "Ġag": 779,
      "ne": 780,
      "ç¾": 781,
      "ĠĠĠĠĠĠĠĠĠĠĠ": 782,
      "ely": 783,
      "ĠĠĠĠĠ": 784,
      "ail": 785,
      "ath": 786,
      "ll": 787,
      "ord": 788,
      "åħ¨": 789,
      "å¤ļ": 790,
      "ory": 791,
      "åı¯": 792,
      "Ġmay": 793,
      "</": 794,
      "éķ": 795,
      "ĠK": 796,
      "are": 797,
      "ose": 798,
      "æ¸¸": 799,
      "lic": 800,
      "ç®": 801,
      "Ġ'": 802,
      "åı°": 803,
      "ple": 804,
      "ĠV": 805,
      "ook": 806,
      "ake": 807,
      "ep": 808,
      "ä¾": 809,
      "çĲĨ": 810,
      "é«": 811,
      "Ġpart": 812,
      "clud": 813,
      "Ġother": 814,
      "éĥ": 815,
      "vel": 816,
      "eth": 817,
      "()": 818,
      "app": 819,
      "è·": 820,
      "Ġtheir": 821,
      "å¯¹": 822,
      "æĦ": 823,
      "Ġev": 824,
      "Ġhad": 825,
      "Ġthey": 826,
      "ä¹Ĳ": 827,
      "ring": 828,
      "é¡": 829,
      "Ġher": 830,
      "In": 831,
      "Ġman": 832,
      "äºİ": 833,
      "åĢ": 834,
      "Ġsc": 835,
      "ç¬": 836,
      "å°ı": 837,
      "Ġsp": 838,
      "Ġmy": 839,
      "erv": 840,
      "very": 841,
      "ä¸ĩ": 842,
      "é«ĺ": 843,
      "ors": 844,
      "èģ": 845,
      "ode": 846,
      "æĻ": 847,
      "Ġbet": 848,
      "çİ°": 849,
      "ree": 850,
      "Ġgr": 851,
      "å¦": 852,
      "åĬł": 853,
      "æĽ": 854,
      "get": 855,
      "çĶµ": 856,
      "turn": 857,
      "å°±": 858,
      "ks": 859,
      "èĩª": 860,
      "lect": 861,
      "åŃĲ": 862,
      "Ġli": 863,
      "ĠâĢľ": 864,
      "ä¸ī": 865,
      "ob": 866,
      "åģ": 867,
      "ject": 868,
      "Ġem": 869,
      "ater": 870,
      "åĲİ": 871,
      "ft": 872,
      "æ¶": 873,
      "low": 874,
      "rib": 875,
      "Ġsy": 876,
      "Ġalso": 877,
      "ä»ĸ": 878,
      "æı": 879,
      "we": 880,
      "Ġtime": 881,
      "Ġro": 882,
      "åĬ¨": 883,
      "Ġdes": 884,
      "irst": 885,
      "ove": 886,
      "æľĪ": 887,
      "gr": 888,
      "Ġabout": 889,
      "ä¹ĭ": 890,
      "ount": 891,
      "ä¸»": 892,
      "Ġany": 893,
      "éĩĳ": 894,
      "å»": 895,
      "Ġpre": 896,
      "ĠâĢ": 897,
      "å¿«": 898,
      "æĸĩ": 899,
      "ä¹Ł": 900,
      "äºļ": 901,
      "æľ¬": 902,
      "å¥½": 903,
      "ç»ı": 904,
      "ĠSt": 905,
      "Ġte": 906,
      "æ³ķ": 907,
      "ç¨": 908,
      "Ġspe": 909,
      "ĠY": 910,
      "åĪ©": 911,
      "Ġfe": 912,
      "çł": 913,
      "ific": 914,
      "Ġbeen": 915,
      "ys": 916,
      "Ġacc": 917,
      "è½½": 918,
      "å§": 919,
      "ates": 920,
      "åĲĪ": 921,
      "èµĦ": 922,
      "æľĢ": 923,
      "Ġsa": 924,
      "erm": 925,
      "éĥ¨": 926,
      "éĹ¨": 927,
      "å¨": 928,
      "Ġthere": 929,
      "æ£": 930,
      "ä»¬": 931,
      "->": 932,
      "åı¸": 933,
      "Ġover": 934,
      "åīį": 935,
      "è°": 936,
      "ç¤": 937,
      "è¿Ľ": 938,
      "Ġwhen": 939,
      "Ġnew": 940,
      "å®ī": 941,
      "ov": 942,
      "ĉĉĉĉ": 943,
      "ï¼ī": 944,
      "æ³¨": 945,
      "ock": 946,
      "éĤ": 947,
      "Ġinter": 948,
      "åĬĽ": 949,
      "äº§": 950,
      "ï¼Ī": 951,
      "Ġob": 952,
      "Ġsome": 953,
      "éĴ": 954,
      "vers": 955,
      "Ġour": 956,
      "èī": 957,
      "è¶": 958,
      "çŁ": 959,
      "é£": 960,
      "Ġthan": 961,
      "å®ŀ": 962,
      "éĶ": 963,
      "å¿ĥ": 964,
      "reat": 965,
      "Ġno": 966,
      "Ġ+": 967,
      "ces": 968,
      "cess": 969,
      "Ġ|": 970,
      "ric": 971,
      "ç¾İ": 972,
      "Ġwho": 973,
      "ays": 974,
      "éķ¿": 975,
      "ĠIt": 976,
      "wo": 977,
      "Ġinto": 978,
      "è¿ĩ": 979,
      "éĿ¢": 980,
      "èĤ²": 981,
      "çĤ¹": 982,
      "Ġam": 983,
      "aus": 984,
      "Ġsub": 985,
      "Ġfun": 986,
      "çŃī": 987,
      "cre": 988,
      "Ġass": 989,
      "ç«Ļ": 990,
      "åĵģ": 991,
      "hed": 992,
      "row": 993,
      "Ġwould": 994,
      "Âł": 995,
      "çīĮ": 996,
      "li": 997,
      "ize": 998,
      "å®ĺç½ĳ": 999,
      "ener": 1000,
      "****": 1001,
      "åĮĸ": 1002,
      "Ġfirst": 1003,
      "Ġdif": 1004,
      "çľŁ": 1005,
      "èĢħ": 1006,
      "fter": 1007,
      "Ġshe": 1008,
      "Ġbl": 1009,
      "åħ¬åı¸": 1010,
      "åľº": 1011,
      "å®ļ": 1012,
      "ink": 1013,
      "Ġget": 1014,
      "ä¸ĭè½½": 1015,
      "åĲĮ": 1016,
      "ark": 1017,
      "æĬķ": 1018,
      "IN": 1019,
      "Ġmod": 1020,
      "ert": 1021,
      "Ġtrans": 1022,
      "ings": 1023,
      "ck": 1024,
      "Ġkn": 1025,
      "elf": 1026,
      "äºĭ": 1027,
      "ild": 1028,
      "æį": 1029,
      "Ġval": 1030,
      "èĭ": 1031,
      "stem": 1032,
      "ä¿¡": 1033,
      "Ġoff": 1034,
      "èĬ": 1035,
      "çķ": 1036,
      "ç¬¬": 1037,
      "åħ³": 1038,
      "ari": 1039,
      "ä¸İ": 1040,
      "è½¦": 1041,
      "Ġinclud": 1042,
      "Ġcol": 1043,
      "éĥ½": 1044,
      "Ġits": 1045,
      "çº¿": 1046,
      "åħĥ": 1047,
      "èĪ": 1048,
      "Ġform": 1049,
      "Ġinv": 1050,
      "Ġthem": 1051,
      "Ġadd": 1052,
      "è®¡": 1053,
      "pect": 1054,
      "ular": 1055,
      "é¦": 1056,
      "ĠAn": 1057,
      "ER": 1058,
      "ual": 1059,
      "Ġcomm": 1060,
      "ä¹Ī": 1061,
      "pon": 1062,
      "ating": 1063,
      "Ġprov": 1064,
      "```": 1065,
      "ĠThis": 1066,
      "pro": 1067,
      "ype": 1068,
      "hen": 1069,
      "Ġph": 1070,
      "yl": 1071,
      "Ġæ": 1072,
      "æıĲ": 1073,
      "ced": 1074,
      "Ġco": 1075,
      "åĮº": 1076,
      "Ġwork": 1077,
      "Ġact": 1078,
      "ĠCh": 1079,
      "iss": 1080,
      "éĢļ": 1081,
      "ick": 1082,
      "å¾Ĺ": 1083,
      "ef": 1084,
      "ĠHe": 1085,
      "igh": 1086,
      "Ġreg": 1087,
      "å¹³åı°": 1088,
      "ish": 1089,
      "å»º": 1090,
      "åķ": 1091,
      "éĩį": 1092,
      "Ġpos": 1093,
      "Ġdet": 1094,
      "Ġunder": 1095,
      "ps": 1096,
      "ruct": 1097,
      "ont": 1098,
      "åħ¥": 1099,
      "Ġsuch": 1100,
      "æģ": 1101,
      "åĬ¡": 1102,
      "ption": 1103,
      "St": 1104,
      "çīĪ": 1105,
      "iew": 1106,
      "åħ¶": 1107,
      "Ġlike": 1108,
      "ç©": 1109,
      "Ġ$\\": 1110,
      "old": 1111,
      "Ġfl": 1112,
      "Ġpe": 1113,
      "çĿ": 1114,
      "èĲ": 1115,
      "Ġpres": 1116,
      "ug": 1117,
      "æ°ĳ": 1118,
      "éļ": 1119,
      "Ġonly": 1120,
      "Ġrec": 1121,
      "Ġset": 1122,
      "ĉĉĉ": 1123,
      "éģĵ": 1124,
      "Ġdef": 1125,
      "èĢĮ": 1126,
      "Ġtwo": 1127,
      "å¤ĸ": 1128,
      "itt": 1129,
      "\">": 1130,
      "å¦Ĥ": 1131,
      "ĠWe": 1132,
      "err": 1133,
      "Ġ)": 1134,
      "åº¦": 1135,
      "ade": 1136,
      "oint": 1137,
      "æīĢ": 1138,
      "å¢": 1139,
      "å±ķ": 1140,
      "çľĭ": 1141,
      "çĦ": 1142,
      "æľŁ": 1143,
      "è¯´": 1144,
      "ased": 1145,
      "æ°´": 1146,
      "Ġcons": 1147,
      "ax": 1148,
      "_{": 1149,
      "ian": 1150,
      "ative": 1151,
      "åĲį": 1152,
      "æŁ": 1153,
      "Ġrel": 1154,
      "åĮĹ": 1155,
      "Ġdata": 1156,
      "ix": 1157,
      "éĹ´": 1158,
      "äºĮ": 1159,
      "åĨħ": 1160,
      "éľ": 1161,
      "éħ": 1162,
      "ied": 1163,
      "ss": 1164,
      "ON": 1165,
      "ood": 1166,
      "Ġclass": 1167,
      "Ġyear": 1168,
      "æīĭæľº": 1169,
      "Ġwhat": 1170,
      "Ġsign": 1171,
      "ec": 1172,
      "Ġneed": 1173,
      "Ġreturn": 1174,
      "Ġac": 1175,
      "tern": 1176,
      "rough": 1177,
      "Ġ.": 1178,
      "å°Ĩ": 1179,
      "Ġpr": 1180,
      "ient": 1181,
      "Ġused": 1182,
      "æŃ£": 1183,
      "ãĢĬ": 1184,
      "oth": 1185,
      "æµ·": 1186,
      "ãĢĭ": 1187,
      "ä»£": 1188,
      "))": 1189,
      "æĪı": 1190,
      "ç´": 1191,
      "Ġstud": 1192,
      "æº": 1193,
      "put": 1194,
      "Ġwhere": 1195,
      "åįĹ": 1196,
      "éĵ": 1197,
      "Ġdiffe": 1198,
      "sp": 1199,
      "Ġeff": 1200,
      "ä¸ŃåĽ½": 1201,
      "ange": 1202,
      "ull": 1203,
      "ise": 1204,
      "ç³": 1205,
      "ä¿Ŀ": 1206,
      "Ġthen": 1207,
      "iel": 1208,
      "AN": 1209,
      "å½©ç¥": 1210,
      "éĩĮ": 1211,
      "æŀľ": 1212,
      "Ġind": 1213,
      "åıĬ": 1214,
      "olog": 1215,
      "Ġ:": 1216,
      "æĪ·": 1217,
      "ä½ł": 1218,
      "##": 1219,
      "ause": 1220,
      "ç®¡": 1221,
      "Ġuse": 1222,
      "åĪ¶": 1223,
      "âĢĶ": 1224,
      "Ġi": 1225,
      "èĤ¡": 1226,
      "Ġbec": 1227,
      "è¥": 1228,
      "ween": 1229,
      "Ġthese": 1230,
      "'t": 1231,
      "è®¾": 1232,
      "ä½į": 1233,
      "æĥħ": 1234,
      "Ġ/": 1235,
      "åŁİ": 1236,
      "ä¸ľ": 1237,
      "å±±": 1238,
      "Ġsur": 1239,
      "ility": 1240,
      "Ġpat": 1241,
      "fig": 1242,
      "çī¹": 1243,
      "Ġhow": 1244,
      "Ġsystem": 1245,
      "åĳĺ": 1246,
      "æĺİ": 1247,
      "æĬ¥": 1248,
      "æ¸¸æĪı": 1249,
      "è¿ĺ": 1250,
      "è¡¨": 1251,
      "éĩı": 1252,
      "Ġthrough": 1253,
      "les": 1254,
      "Ġjust": 1255,
      "Ġsupp": 1256,
      "Ġspec": 1257,
      "----------------": 1258,
      "è¥¿": 1259,
      "ï¿½ï¿½ï¿½ï¿½": 1260,
      "Ġback": 1261,
      "é©": 1262,
      "çĽ®": 1263,
      "ool": 1264,
      "Ġbetween": 1265,
      "io": 1266,
      "æ¯Ķ": 1267,
      "ï¼Ľ": 1268,
      "çĪ": 1269,
      "å£": 1270,
      "ample": 1271,
      "å¤§åıĳ": 1272,
      "ĠĠĠĠĠĠĠĠĠĠĠĠĠĠĠ": 1273,
      "çĭ": 1274,
      "ãĢĢ": 1275,
      "Ġcould": 1276,
      "ç½ĳç«Ļ": 1277,
      "æĬĢ": 1278,
      "ible": 1279,
      "Ġcell": 1280,
      "Ġrem": 1281,
      "tr": 1282,
      "Ġexp": 1283,
      "Ġresult": 1284,
      "ning": 1285,
      "æķ°": 1286,
      "::": 1287,
      "æ¡": 1288,
      "ments": 1289,
      "ä½ĵèĤ²": 1290,
      "é»": 1291,
      "Ġfunction": 1292,
      "çģ": 1293,
      "Ġafter": 1294,
      "Ġhim": 1295,
      "val": 1296,
      "ãģ": 1297,
      "åİ¿": 1298,
      "cond": 1299,
      "ç±": 1300,
      "Ġconst": 1301,
      "äº¤": 1302,
      "ution": 1303,
      "è¢": 1304,
      "æ·": 1305,
      "IG": 1306,
      "Ġsaid": 1307,
      "ex": 1308,
      "Ġ//": 1309,
      "æĶ¿": 1310,
      "Ġnum": 1311,
      "ç²": 1312,
      "Ġprodu": 1313,
      "sc": 1314,
      "EN": 1315,
      "oy": 1316,
      "Ġpol": 1317,
      "Ġatt": 1318,
      "æ¬¡": 1319,
      "ield": 1320,
      "Ġend": 1321,
      "ms": 1322,
      "ublic": 1323,
      "æ£ĭ": 1324,
      "ined": 1325,
      "åĿĢ": 1326,
      "å½ĵ": 1327,
      "par": 1328,
      "ures": 1329,
      "ç¼": 1330,
      "åįģ": 1331,
      "è£": 1332,
      "æķĻ": 1333,
      "Ġshow": 1334,
      "åĩ¯": 1335,
      "ollow": 1336,
      "ox": 1337,
      "^{": 1338,
      "ä»¶": 1339,
      "AT": 1340,
      "ï¼ģ": 1341,
      "oup": 1342,
      "ST": 1343,
      "çĻ¾": 1344,
      "çĽ¸": 1345,
      "inal": 1346,
      "±ä¹Ĳ": 1347,
      "ç¨ĭ": 1348,
      "Ġsm": 1349,
      "ident": 1350,
      "èį": 1351,
      "æ£ĭçīĮ": 1352,
      "type": 1353,
      "Ġinst": 1354,
      "¾³": 1355,
      "çī©": 1356,
      "æĦı": 1357,
      "its": 1358,
      "ç¦": 1359,
      "Ġknow": 1360,
      "ict": 1361,
      "ople": 1362,
      "ious": 1363,
      "ç§ĳ": 1364,
      "hes": 1365,
      "Ġcor": 1366,
      "ç³»": 1367,
      "ention": 1368,
      "Ġrequ": 1369,
      "å·ŀ": 1370,
      "bet": 1371,
      "åķĨ": 1372,
      "æĹł": 1373,
      "èµ·": 1374,
      "çĦ¶": 1375,
      "cy": 1376,
      "ĠĊ": 1377,
      "Ġeach": 1378,
      "rit": 1379,
      "å¨±ä¹Ĳ": 1380,
      "Ġsim": 1381,
      "sh": 1382,
      "Ġwell": 1383,
      "Ġbu": 1384,
      "çĿĢ": 1385,
      "aw": 1386,
      "ï¼Ł": 1387,
      "è·¯": 1388,
      "ics": 1389,
      "Ġke": 1390,
      "ract": 1391,
      "ma": 1392,
      "set": 1393,
      "çĲĥ": 1394,
      "ower": 1395,
      "other": 1396,
      "========": 1397,
      "Ġgener": 1398,
      "Ġusing": 1399,
      "als": 1400,
      "Ġdist": 1401,
      "to": 1402,
      "Th": 1403,
      "çĥ": 1404,
      "ble": 1405,
      "ethod": 1406,
      "Ġmost": 1407,
      "Ġshould": 1408,
      "éĻħ": 1409,
      "uring": 1410,
      "RE": 1411,
      "Ġprocess": 1412,
      "Ġ*/": 1413,
      "å¼ı": 1414,
      "ons": 1415,
      "ork": 1416,
      "ues": 1417,
      "æĽ´": 1418,
      "è§Ħ": 1419,
      "åºĶ": 1420,
      "formation": 1421,
      "ities": 1422,
      "äº¬": 1423,
      "mer": 1424,
      "åİ»": 1425,
      "oid": 1426,
      "Ġchar": 1427,
      "Ġent": 1428,
      "Ġfollow": 1429,
      "ized": 1430,
      "ĠUn": 1431,
      "Ġloc": 1432,
      "Ġsee": 1433,
      "Ġåĩ¯": 1434,
      "def": 1435,
      "æľį": 1436,
      "éĽĨ": 1437,
      "å®¢": 1438,
      "yp": 1439,
      "rol": 1440,
      "Ġlook": 1441,
      "èĥ": 1442,
      "åįķ": 1443,
      "Ġhigh": 1444,
      "Ġmem": 1445,
      "wn": 1446,
      "ward": 1447,
      "éª": 1448,
      "pos": 1449,
      "text": 1450,
      "Ġdid": 1451,
      "åŀ": 1452,
      "åįļ": 1453,
      "åŁº": 1454,
      "çİ¯": 1455,
      "åĽ¾": 1456,
      "Ġext": 1457,
      "ins": 1458,
      "ator": 1459,
      "Ġcar": 1460,
      "çĸ": 1461,
      "Ġel": 1462,
      "ä»İ": 1463,
      "ily": 1464,
      "¾³éĹ¨": 1465,
      "å¾Ī": 1466,
      "uch": 1467,
      "let": 1468,
      "ä¸Ģä¸ª": 1469,
      "Ġdi": 1470,
      "Ġmake": 1471,
      "Ġcur": 1472,
      "åı£": 1473,
      "ically": 1474,
      "uc": 1475,
      "Ġdifferent": 1476,
      "æŃ¤": 1477,
      "æ²¡": 1478,
      "ww": 1479,
      "Ġpeople": 1480,
      "atic": 1481,
      "é¾": 1482,
      "read": 1483,
      "ç»ĵ": 1484,
      ".,": 1485,
      "ited": 1486,
      "Ġdev": 1487,
      "Ġ,": 1488,
      "Ġvari": 1489,
      "åĽł": 1490,
      "æºĲ": 1491,
      "ä»»": 1492,
      "Ġpar": 1493,
      "è¢«": 1494,
      "line": 1495,
      "åĸ": 1496,
      "eng": 1497,
      "ement": 1498,
      "ature": 1499,
      "Ġwant": 1500,
      "ä»·": 1501,
      "ew": 1502,
      "å¹¶": 1503,
      "å·²": 1504,
      "Ġlong": 1505,
      "ç§į": 1506,
      "AR": 1507,
      "Ġsecond": 1508,
      "ä½Ĩ": 1509,
      "å²": 1510,
      "æ»": 1511,
      "è§£": 1512,
      "riv": 1513,
      "Ġpresent": 1514,
      "ting": 1515,
      "å®ĺæĸ¹": 1516,
      "ĠâĢĵ": 1517,
      "æĢ»": 1518,
      "è¿Ĳ": 1519,
      "Re": 1520,
      "ctions": 1521,
      "æĤ": 1522,
      "ĠRe": 1523,
      "...": 1524,
      "Ġserv": 1525,
      "Ġright": 1526,
      "æ±Ł": 1527,
      "pr": 1528,
      "æĶ¶": 1529,
      "Ġevery": 1530,
      "the": 1531,
      "IT": 1532,
      "Ġmin": 1533,
      "æµģ": 1534,
      "ices": 1535,
      "ann": 1536,
      "Ġeven": 1537,
      "éĴ±": 1538,
      "èĢģ": 1539,
      "led": 1540,
      "å·¥ä½ľ": 1541,
      "tain": 1542,
      "ale": 1543,
      "çĽ´": 1544,
      "bod": 1545,
      "Ġdown": 1546,
      "Ġtra": 1547,
      "æ´»": 1548,
      "åĽŀ": 1549,
      "ages": 1550,
      "Ġhere": 1551,
      "Ġhel": 1552,
      "æĮģ": 1553,
      "åİŁ": 1554,
      "ute": 1555,
      "[@": 1556,
      "ever": 1557,
      "air": 1558,
      "ines": 1559,
      "èİ": 1560,
      "ç¡": 1561,
      "__": 1562,
      "åĪĴ": 1563,
      "atch": 1564,
      "è®°": 1565,
      "Ġway": 1566,
      "æİ¥": 1567,
      "Ġche": 1568,
      "ational": 1569,
      "æĹ©": 1570,
      "Ġhand": 1571,
      "é¢ĺ": 1572,
      "åĭ": 1573,
      "Ġeffect": 1574,
      "éĻ¢": 1575,
      "arch": 1576,
      "èº": 1577,
      "Ġexper": 1578,
      "Ġsol": 1579,
      "éĤ£": 1580,
      "æ¬¾": 1581,
      "Ġagain": 1582,
      "}$": 1583,
      "èĻ": 1584,
      "ful": 1585,
      "Ġfil": 1586,
      "Ġcall": 1587,
      "oad": 1588,
      "å¸¸": 1589,
      "Ġprovid": 1590,
      "ĠFor": 1591,
      "ger": 1592,
      "Ġpartic": 1593,
      "æĥ³": 1594,
      "ç½ĳåĿĢ": 1595,
      "ource": 1596,
      "Ġåĩ¯åıĳ": 1597,
      "Ġser": 1598,
      "cept": 1599,
      "of": 1600,
      "Ġdire": 1601,
      "rence": 1602,
      "ense": 1603,
      "fore": 1604,
      "velop": 1605,
      "Ġ@": 1606,
      "çĻ»": 1607,
      "Ġnow": 1608,
      "åĽ½éĻħ": 1609,
      "èī²": 1610,
      "åĶ": 1611,
      "AL": 1612,
      "ife": 1613,
      "å¹¿": 1614,
      "äºĽ": 1615,
      "Ġå¤§åıĳ": 1616,
      "æĪĳä»¬": 1617,
      "ç¤¾": 1618,
      "æ¼": 1619,
      "æł¼": 1620,
      "Ġmed": 1621,
      "Ġmon": 1622,
      "Ġvery": 1623,
      "æĢ§": 1624,
      "æľ¯": 1625,
      "Ġop": 1626,
      "tt": 1627,
      "ee": 1628,
      "è¨": 1629,
      "Ġinformation": 1630,
      "åı¯ä»¥": 1631,
      "Ġtest": 1632,
      "cent": 1633,
      "Ġsame": 1634,
      "åĽĽ": 1635,
      "èģĶ": 1636,
      "Ġaut": 1637,
      "ared": 1638,
      "oci": 1639,
      "Ġu": 1640,
      "ients": 1641,
      "èµ°": 1642,
      "ml": 1643,
      "Ġbecause": 1644,
      "str": 1645,
      "é¾Ļ": 1646,
      "Ġcase": 1647,
      "ä¸¤": 1648,
      "åįİ": 1649,
      "ä¸ĵ": 1650,
      "å¸Ī": 1651,
      "ä¼ģ": 1652,
      "right": 1653,
      "Ġname": 1654,
      "Ġread": 1655,
      "ave": 1656,
      "ner": 1657,
      "ç«ĭ": 1658,
      "fl": 1659,
      "åģļ": 1660,
      "æį®": 1661,
      "æ°Ķ": 1662,
      "Ġfind": 1663,
      "ä½¿": 1664,
      "éĹ®": 1665,
      "çŁ¥": 1666,
      "OR": 1667,
      "çĽŁ": 1668,
      "Ġboth": 1669,
      "Ġpers": 1670,
      "LE": 1671,
      "be": 1672,
      "Ġmethod": 1673,
      "æł·": 1674,
      "Ġins": 1675,
      "è§Ĩ": 1676,
      "Ġnumber": 1677,
      "éĢŁ": 1678,
      "ä¹¦": 1679,
      "Ġbel": 1680,
      "els": 1681,
      "Ġdesc": 1682,
      "Ġx": 1683,
      "day": 1684,
      "imes": 1685,
      "è´¹": 1686,
      "èº«": 1687,
      "Ġpoint": 1688,
      "æ¨": 1689,
      "ĠIf": 1690,
      "hat": 1691,
      "åĲĳ": 1692,
      "Ġmany": 1693,
      "å¸ĥ": 1694,
      "èĦ": 1695,
      "Ġbefore": 1696,
      "å½ķ": 1697,
      "ash": 1698,
      "ality": 1699,
      "æłĩ": 1700,
      "åıª": 1701,
      "Ġvalue": 1702,
      "åĽ¢": 1703,
      "Ġerr": 1704,
      "Ġexample": 1705,
      "Ġstart": 1706,
      "åĲĦ": 1707,
      "Ġinte": 1708,
      "way": 1709,
      "gan": 1710,
      "ince": 1711,
      "é£İ": 1712,
      "Ġgu": 1713,
      "å¤ĩ": 1714,
      "Ġincre": 1715,
      "SE": 1716,
      "Ġplay": 1717,
      "aking": 1718,
      "å¯¼": 1719,
      "ç¤º": 1720,
      "********": 1721,
      "å½©ç¥¨": 1722,
      "åı·": 1723,
      "æĪ¿": 1724,
      "ired": 1725,
      "æĪĸ": 1726,
      "Ġz": 1727,
      "Ġæ¾³éĹ¨": 1728,
      "æĸ¯": 1729,
      "Ġbeing": 1730,
      "face": 1731,
      "ä¸ĸ": 1732,
      "ä»Ĭ": 1733,
      "Ġfact": 1734,
      "Ġoper": 1735,
      "æīĵ": 1736,
      "ĠCom": 1737,
      "æģ¯": 1738,
      "å¼º": 1739,
      "ç»Ł": 1740,
      "å°ĳ": 1741,
      "raph": 1742,
      "äºĶ": 1743,
      "Ġfr": 1744,
      "fr": 1745,
      "æİ¨": 1746,
      "Ġyears": 1747,
      "Ġdoes": 1748,
      "èĩ³": 1749,
      "Ġdec": 1750,
      "Ã©": 1751,
      "éĢī": 1752,
      "Ġgood": 1753,
      "pend": 1754,
      "ts": 1755,
      "Ġmade": 1756,
      "Ġanal": 1757,
      "dd": 1758,
      "yn": 1759,
      "Ġgl": 1760,
      "Ġthose": 1761,
      "ĆĈ": 1762,
      "æĴ": 1763,
      "Ġappro": 1764,
      "å½±": 1765,
      "Ġhelp": 1766,
      "çº§": 1767,
      "any": 1768,
      "Ġ>": 1769,
      "self": 1770,
      "éŁ": 1771,
      "ĠAl": 1772,
      "Ġrep": 1773,
      "ng": 1774,
      "ank": 1775,
      "ively": 1776,
      "ĠAs": 1777,
      "ta": 1778,
      "Ġav": 1779,
      "ified": 1780,
      "uff": 1781,
      "ĠPro": 1782,
      "Ġdon": 1783,
      "ole": 1784,
      "æĪĺ": 1785,
      "CT": 1786,
      "Ġäºļ": 1787,
      "Ġprote": 1788,
      "return": 1789,
      "FF": 1790,
      "Ġperform": 1791,
      "lement": 1792,
      "Ġstr": 1793,
      "æ¹": 1794,
      "åºĹ": 1795,
      "Ġfound": 1796,
      "é¡¹": 1797,
      "Ġwhile": 1798,
      "ï¿½ï¿½ï¿½": 1799,
      "çľģ": 1800,
      "é¦ĸ": 1801,
      "ond": 1802,
      "è¯ģ": 1803,
      "ĠFIG": 1804,
      "èĮ": 1805,
      "Ġelect": 1806,
      "Ġdevelop": 1807,
      "åĪĽ": 1808,
      "nd": 1809,
      "??": 1810,
      "çĶ±": 1811,
      "Ġref": 1812,
      "ID": 1813,
      "è¿ĳ": 1814,
      "Ġlevel": 1815,
      "é©¬": 1816,
      "éĺ³": 1817,
      "ases": 1818,
      "Ġcre": 1819,
      "å§Ķ": 1820,
      "åĬ¿": 1821,
      "Ġmet": 1822,
      "ĠQ": 1823,
      "Ġown": 1824,
      "ants": 1825,
      "å¥ĸ": 1826,
      "çĹ": 1827,
      "ym": 1828,
      "çİĭ": 1829,
      "åıĳå±ķ": 1830,
      "Ġtype": 1831,
      "ĠYou": 1832,
      "åħ±": 1833,
      "éĻĲ": 1834,
      "Ġlar": 1835,
      "æ¢": 1836,
      "å¥³": 1837,
      "rest": 1838,
      "br": 1839,
      "ãĥ": 1840,
      "min": 1841,
      "ization": 1842,
      "âĢ¦": 1843,
      "Ġdisc": 1844,
      "åŀĭ": 1845,
      "åĻ": 1846,
      "ateg": 1847,
      "åĨĮ": 1848,
      "è²": 1849,
      "çłĶ": 1850,
      "over": 1851,
      "Ġpublic": 1852,
      "å·±": 1853,
      "Ġ#": 1854,
      "å±Ģ": 1855,
      "ä»Ģ": 1856,
      "è¾¾": 1857,
      "Ġmuch": 1858,
      "ç»Ħ": 1859,
      "vent": 1860,
      "Ġrespon": 1861,
      "Ġgiv": 1862,
      "gram": 1863,
      "æ±Ĥ": 1864,
      "Ġra": 1865,
      "alk": 1866,
      "æĲ": 1867,
      "Ġsupport": 1868,
      "åł": 1869,
      "az": 1870,
      "æ®": 1871,
      "ier": 1872,
      "æĮĩ": 1873,
      "Ġstruct": 1874,
      "Ġbr": 1875,
      "Ġequ": 1876,
      "name": 1877,
      "ane": 1878,
      "Ġcontrol": 1879,
      "å¤Ħ": 1880,
      "ness": 1881,
      "ved": 1882,
      "å¢ŀ": 1883,
      "ames": 1884,
      "We": 1885,
      "å¾·": 1886,
      "ĠX": 1887,
      "ving": 1888,
      "èµĽ": 1889,
      "ray": 1890,
      "amp": 1891,
      "è£ħ": 1892,
      "Ġet": 1893,
      "ression": 1894,
      "è±": 1895,
      "ene": 1896,
      "æĦŁ": 1897,
      "ually": 1898,
      "èĳ": 1899,
      "chn": 1900,
      "åıĹ": 1901,
      "å¤´": 1902,
      "æĢİ": 1903,
      "ĠĠĠĠĠĠĠĠĠ": 1904,
      "AP": 1905,
      "åħī": 1906,
      "iment": 1907,
      "ç¥ŀ": 1908,
      "åĬłçĽŁ": 1909,
      "work": 1910,
      "anc": 1911,
      "åħĪ": 1912,
      "Ġgroup": 1913,
      "è°ĥ": 1914,
      "Ġant": 1915,
      "Ġnon": 1916,
      "bl": 1917,
      "ven": 1918,
      "æĶ¾": 1919,
      "Ġterm": 1920,
      "ä¼ł": 1921,
      "It": 1922,
      "è®©": 1923,
      "åĨĽ": 1924,
      "gg": 1925,
      "ES": 1926,
      "ather": 1927,
      "æĸĻ": 1928,
      "èĢĥ": 1929,
      "alth": 1930,
      "à¦": 1931,
      "ross": 1932,
      "view": 1933,
      "Ġembod": 1934,
      "æĺĵ": 1935,
      "ç²¾": 1936,
      "Ġest": 1937,
      "ĠAr": 1938,
      "ĠZ": 1939,
      "ium": 1940,
      "Ġed": 1941,
      "ism": 1942,
      "éĢł": 1943,
      "Ġrece": 1944,
      "Ġline": 1945,
      "Ġposs": 1946,
      "è®¡åĪĴ": 1947,
      "ç©º": 1948,
      "ä¼ģä¸ļ": 1949,
      "æ¥": 1950,
      "ially": 1951,
      "çı": 1952,
      "èĩªå·±": 1953,
      "æ³¨åĨĮ": 1954,
      "ton": 1955,
      "çķĮ": 1956,
      "åĮĹäº¬": 1957,
      "çłģ": 1958,
      "IC": 1959,
      "ouse": 1960,
      "èĲ¥": 1961,
      "ä¾Ľ": 1962,
      "Ġthink": 1963,
      "ä½ķ": 1964,
      "è¯·": 1965,
      "erg": 1966,
      "è´¨": 1967,
      "Ġcour": 1968,
      "Ġvis": 1969,
      "åĳĬ": 1970,
      "ording": 1971,
      "æ²³": 1972,
      "æ¸ħ": 1973,
      "Ġduring": 1974,
      "ience": 1975,
      "ĠAnd": 1976,
      "NA": 1977,
      "Ġmain": 1978,
      "Pro": 1979,
      "åĻ¨": 1980,
      "Ġ!": 1981,
      "Ġlist": 1982,
      "irc": 1983,
      "ãĤ": 1984,
      "ought": 1985,
      "Ex": 1986,
      "med": 1987,
      "Con": 1988,
      "åĬŀ": 1989,
      "Ġcle": 1990,
      "åľ¨çº¿": 1991,
      "Ġthree": 1992,
      "Ġear": 1993,
      "me": 1994,
      "Ġcent": 1995,
      "Ġday": 1996,
      "ason": 1997,
      "èĬ±": 1998,
      "è®º": 1999,
      "éľĢ": 2000,
      "Ġimport": 2001,
      "ency": 2002,
      "fo": 2003,
      "ĠSe": 2004,
      "ulation": 2005,
      "ody": 2006,
      "{\\": 2007,
      "htt": 2008,
      "Ġmat": 2009,
      "ç»Ļ": 2010,
      "çħ": 2011,
      "ron": 2012,
      "Ġart": 2013,
      "Ġactiv": 2014,
      "è®®": 2015,
      "æ²»": 2016,
      "iness": 2017,
      "æł¡": 2018,
      "ets": 2019,
      "æ·±": 2020,
      "dex": 2021,
      "Ġwithout": 2022,
      "çĭĹ": 2023,
      "Ġtake": 2024,
      "åĪ«": 2025,
      "æŁ¥": 2026,
      "Ġcells": 2027,
      "ä»Ģä¹Ī": 2028,
      "urther": 2029,
      "æ²¡æľī": 2030,
      "å°Ķ": 2031,
      "que": 2032,
      "ify": 2033,
      "æķ´": 2034,
      "ote": 2035,
      "åıĸ": 2036,
      "åıĮ": 2037,
      "çľŁäºº": 2038,
      "ctor": 2039,
      "Ġtem": 2040,
      "Ġsmall": 2041,
      "Ġcond": 2042,
      "itions": 2043,
      "æĬķæ³¨": 2044,
      "æĶ¹": 2045,
      "Ġfam": 2046,
      "less": 2047,
      "Ġbest": 2048,
      "Ġcommun": 2049,
      "Ġpa": 2050,
      "aterial": 2051,
      "ç±»": 2052,
      "å®Į": 2053,
      "æĹ¶éĹ´": 2054,
      "ule": 2055,
      "Ġbus": 2056,
      "åĳ¨": 2057,
      "CR": 2058,
      "HE": 2059,
      "Ġdesign": 2060,
      "ds": 2061,
      "Ġdel": 2062,
      "cer": 2063,
      "åĦ": 2064,
      "æľįåĬ¡": 2065,
      "åħĭ": 2066,
      "ah": 2067,
      "åıĺ": 2068,
      "ured": 2069,
      "Ġsk": 2070,
      "æĿĳ": 2071,
      "Ġstate": 2072,
      "ç®¡çĲĨ": 2073,
      "åĮħ": 2074,
      "opy": 2075,
      "èĬĤ": 2076,
      "ream": 2077,
      "å®¹": 2078,
      "ider": 2079,
      "Ġhead": 2080,
      "Ġfin": 2081,
      "by": 2082,
      "AC": 2083,
      "é¤": 2084,
      "Ġsl": 2085,
      "til": 2086,
      "ĠShe": 2087,
      "ĠHow": 2088,
      "Ġperson": 2089,
      "DE": 2090,
      "é¢Ĩ": 2091,
      "åĩĨ": 2092,
      "pec": 2093,
      "Ġ==": 2094,
      "ç«ł": 2095,
      "æŀĹ": 2096,
      "Ġorder": 2097,
      "Ġlead": 2098,
      "åħ·": 2099,
      "Ġopen": 2100,
      "AS": 2101,
      "Ġopt": 2102,
      "âĢĵ": 2103,
      "ĠÎ": 2104,
      "Ġlight": 2105,
      "Ġstill": 2106,
      "Ġport": 2107,
      "Ġself": 2108,
      "uss": 2109,
      "Ġtyp": 2110,
      "çİ©": 2111,
      "add": 2112,
      "Ġ</": 2113,
      "Ġstudy": 2114,
      "Ġmust": 2115,
      "æ¯ı": 2116,
      "æŀģ": 2117,
      "Ġaround": 2118,
      "çīĩ": 2119,
      "ology": 2120,
      "ists": 2121,
      "åĮ»": 2122,
      "Ġwithin": 2123,
      "ĠĠĠĠĠĠĠĠĠĠĠĠĠĠĠĠĠĠĠ": 2124,
      "Ġrun": 2125,
      "Ġsom": 2126,
      "Ġident": 2127,
      "æĭĽ": 2128,
      "çĻ½": 2129,
      "Ġ{\\": 2130,
      "Ġlast": 2131,
      "Ġpur": 2132,
      "Ġtri": 2133,
      "éĺŁ": 2134,
      "ters": 2135,
      "çİĩ": 2136,
      "Ġdevice": 2137,
      "Ġmark": 2138,
      "Ġbre": 2139,
      "Ġproper": 2140,
      "ument": 2141,
      "Ġcurrent": 2142,
      "èħ": 2143,
      "Ġpost": 2144,
      "å¸¦": 2145,
      "ware": 2146,
      "Ġallow": 2147,
      "ished": 2148,
      "éĿŀ": 2149,
      "ä¼ĺ": 2150,
      "æĶ¯": 2151,
      "ability": 2152,
      "ination": 2153,
      "Ġchild": 2154,
      "Ġanother": 2155,
      "acter": 2156,
      "ript": 2157,
      "èŀ": 2158,
      "Ġdescrib": 2159,
      "è¶³": 2160,
      "land": 2161,
      "He": 2162,
      "arget": 2163,
      "arm": 2164,
      "ural": 2165,
      "amet": 2166,
      "Ġpass": 2167,
      "Ġcontain": 2168,
      "æĢİä¹Ī": 2169,
      "Ġlife": 2170,
      "åĨį": 2171,
      "Ġdeterm": 2172,
      "hip": 2173,
      "arg": 2174,
      "ott": 2175,
      "åĢ¼": 2176,
      "ĠEx": 2177,
      "Ġlim": 2178,
      "è¯Ŀ": 2179,
      "åħļ": 2180,
      "Ġgreat": 2181,
      "}}": 2182,
      "net": 2183,
      "âĢī": 2184,
      "Ġpatients": 2185,
      "Ġ^": 2186,
      "æīį": 2187,
      "ision": 2188,
      "ĠBut": 2189,
      "lex": 2190,
      "ars": 2191,
      "ength": 2192,
      "Ġproduct": 2193,
      "åĲĹ": 2194,
      "Ch": 2195,
      "man": 2196,
      "Ġapplic": 2197,
      "Ġexpl": 2198,
      "IS": 2199,
      "Ġcount": 2200,
      "for": 2201,
      "Ġaddition": 2202,
      "Ġprogram": 2203,
      "ayer": 2204,
      "è®¤": 2205,
      "ek": 2206,
      "è§Ĥ": 2207,
      "ï½": 2208,
      "ference": 2209,
      "å½¢": 2210,
      "bs": 2211,
      "å¸Ĥåľº": 2212,
      "æ¡Ī": 2213,
      "è¯¥": 2214,
      "fun": 2215,
      "è§ģ": 2216,
      "Ġmult": 2217,
      "Ġla": 2218,
      "ĠDe": 2219,
      "Ġbo": 2220,
      "Ġstat": 2221,
      "å¤ª": 2222,
      "Ġmeas": 2223,
      "....": 2224,
      "oh": 2225,
      "ably": 2226,
      "ĠÂ": 2227,
      "æ¶Ī": 2228,
      "æĿĥ": 2229,
      "æĬĬ": 2230,
      "Ġreport": 2231,
      "åıĤ": 2232,
      "æİĴ": 2233,
      "ining": 2234,
      "èı": 2235,
      "Ġtreat": 2236,
      "ÂłÂł": 2237,
      "æķĪ": 2238,
      "å¼ł": 2239,
      "ask": 2240,
      "Ġinc": 2241,
      "Ġhome": 2242,
      "ivers": 2243,
      "Ćć": 2244,
      "è½¬": 2245,
      "Ġstand": 2246,
      "Ġincluding": 2247,
      "Ġworld": 2248,
      "\"}": 2249,
      "Type": 2250,
      "çĻ¾å®¶": 2251,
      "ral": 2252,
      "ior": 2253,
      "lease": 2254,
      "esc": 2255,
      "æŃ¥": 2256,
      "math": 2257,
      "Ġve": 2258,
      "çĪ±": 2259,
      "Ġwr": 2260,
      "Ġtop": 2261,
      "æµİ": 2262,
      "Ġpower": 2263,
      "Ġreal": 2264,
      "Ġrest": 2265,
      "ived": 2266,
      "æĿ¡": 2267,
      "æĹ¶æĹ¶": 2268,
      "Ġtechn": 2269,
      "ways": 2270,
      "è¶ħ": 2271,
      "This": 2272,
      "Ġlet": 2273,
      "col": 2274,
      "èĭ±": 2275,
      "å¥¹": 2276,
      "éħĴ": 2277,
      "this": 2278,
      "Ġresults": 2279,
      "ĠSh": 2280,
      "ital": 2281,
      "itive": 2282,
      "roll": 2283,
      "ery": 2284,
      "Ġmodel": 2285,
      "éĿĴ": 2286,
      "æĭī": 2287,
      "çĬ": 2288,
      "here": 2289,
      "play": 2290,
      "ç§°": 2291,
      "Ġfield": 2292,
      "åĬ©": 2293,
      "akes": 2294,
      "åĥ": 2295,
      "ault": 2296,
      "ission": 2297,
      "Ġview": 2298,
      "Name": 2299,
      "ope": 2300,
      "ately": 2301,
      "é¤Ĳ": 2302,
      "å°±æĺ¯": 2303,
      "Ġsing": 2304,
      "çª": 2305,
      "ĠNew": 2306,
      "Ġsignific": 2307,
      "alse": 2308,
      "ç«¯": 2309,
      "ration": 2310,
      "ET": 2311,
      "////": 2312,
      "chool": 2313,
      "part": 2314,
      "ribut": 2315,
      "æĸ½": 2316,
      "Ġcontin": 2317,
      "Ġredu": 2318,
      "nect": 2319,
      "Ġfollowing": 2320,
      "å£«": 2321,
      "åŃĹ": 2322,
      "Ġ%": 2323,
      "ED": 2324,
      "è¿Ľè¡Į": 2325,
      "Ġtoo": 2326,
      "é¥": 2327,
      "çĮ": 2328,
      "ential": 2329,
      "æĹ¶æĹ¶å½©": 2330,
      "æľª": 2331,
      "data": 2332,
      "è¿ŀ": 2333,
      "ä¹ł": 2334,
      "Ġelse": 2335,
      "Ġabove": 2336,
      "string": 2337,
      "åĪ©æĿ¥": 2338,
      "bers": 2339,
      "Ġsize": 2340,
      "Ġproble": 2341,
      "ä»½": 2342,
      "åıĪ": 2343,
      "çĻ»å½ķ": 2344,
      "reg": 2345,
      "é¢Ħ": 2346,
      "Ġwater": 2347,
      "èŀį": 2348,
      "Ġdem": 2349,
      "ivid": 2350,
      "Ġfile": 2351,
      "ĠĠĠĠĠĠ": 2352,
      "Ġleast": 2353,
      "aj": 2354,
      "èª": 2355,
      "æĺŁ": 2356,
      "Ġhum": 2357,
      "éħį": 2358,
      "not": 2359,
      "éĺ²": 2360,
      "äºī": 2361,
      "Ġcap": 2362,
      "nt": 2363,
      "æĳ": 2364,
      "Ġsay": 2365,
      "ives": 2366,
      "yd": 2367,
      "cur": 2368,
      "ç¯": 2369,
      "aut": 2370,
      "clude": 2371,
      "éĹ»": 2372,
      "å¿«ä¸ī": 2373,
      "å½©ç¥ŀ": 2374,
      "cite": 2375,
      "Ġinclude": 2376,
      "Ġdirect": 2377,
      "resent": 2378,
      "version": 2379,
      "åĨ³": 2380,
      "Ġplace": 2381,
      "ä¹°": 2382,
      "ĠThey": 2383,
      "æļ": 2384,
      "åĽ½å®¶": 2385,
      "Ġprof": 2386,
      "lection": 2387,
      "att": 2388,
      "Ġadv": 2389,
      "ext": 2390,
      "und": 2391,
      "Ġobject": 2392,
      "ittle": 2393,
      "èŃ": 2394,
      "è¯ķ": 2395,
      "icro": 2396,
      "ccess": 2397,
      "/*": 2398,
      "åŃĺ": 2399,
      "æ¸¯": 2400,
      "Ġassoci": 2401,
      "new": 2402,
      "ä¿¡æģ¯": 2403,
      "ional": 2404,
      "rm": 2405,
      "AG": 2406,
      "ustom": 2407,
      "ailable": 2408,
      "ently": 2409,
      "Ġgoing": 2410,
      "çĭĹä¸ĩ": 2411,
      "oot": 2412,
      "æĬĢæľ¯": 2413,
      "vious": 2414,
      "Ġbased": 2415,
      "Ġeas": 2416,
      "Ġshown": 2417,
      "CH": 2418,
      "Ġconf": 2419,
      "åħŃ": 2420,
      "ysis": 2421,
      "ety": 2422,
      "ç©¶": 2423,
      "idth": 2424,
      "æīĭæľºçīĪ": 2425,
      "UL": 2426,
      "meric": 2427,
      "ĠCl": 2428,
      "èģĮ": 2429,
      "Ġrespect": 2430,
      "ertain": 2431,
      "mb": 2432,
      "Ġchang": 2433,
      "æŀĦ": 2434,
      "åħį": 2435,
      "Ġnet": 2436,
      "Ġcal": 2437,
      "ç»Ń": 2438,
      "Ġside": 2439,
      "requ": 2440,
      "Ġmaterial": 2441,
      "RO": 2442,
      "ä¿®": 2443,
      "åıį": 2444,
      "Ġturn": 2445,
      "åĬŁ": 2446,
      "ç®Ĺ": 2447,
      "å¡": 2448,
      "åİĨ": 2449,
      "æħ": 2450,
      "Ġcr": 2451,
      "key": 2452,
      "Ġfree": 2453,
      "}\\": 2454,
      "Ġfew": 2455,
      "Ġsignificant": 2456,
      "ves": 2457,
      "serv": 2458,
      "Â·": 2459,
      "ik": 2460,
      "Ġmight": 2461,
      "ĠTr": 2462,
      "Ĉą": 2463,
      "å¤į": 2464,
      "Ġless": 2465,
      "Com": 2466,
      "ither": 2467,
      "çº¢": 2468,
      "ĠCon": 2469,
      "æĹĹ": 2470,
      "Ġaff": 2471,
      "ĠÐ": 2472,
      "mm": 2473,
      "Ġsw": 2474,
      "Ġtrue": 2475,
      "Ġocc": 2476,
      "por": 2477,
      "Ġsince": 2478,
      "ples": 2479,
      "\\]": 2480,
      "éĢģ": 2481,
      "ç½®": 2482,
      "å¼ķ": 2483,
      "ten": 2484,
      "ser": 2485,
      "Ġagainst": 2486,
      "Ġlow": 2487,
      "åıĭ": 2488,
      "ification": 2489,
      "Ġuser": 2490,
      "æĴŃ": 2491,
      "rop": 2492,
      "æĢĿ": 2493,
      "Ġparticular": 2494,
      "stand": 2495,
      "osed": 2496,
      "Ġgrow": 2497,
      "ĠOn": 2498,
      "ç¦ı": 2499,
      "uf": 2500,
      "åįĩ": 2501,
      "åĤ": 2502,
      "Ġquest": 2503,
      "rr": 2504,
      "Ġimp": 2505,
      "äº¿": 2506,
      "define": 2507,
      "ç¾¤": 2508,
      "åĨľ": 2509,
      "Ġgiven": 2510,
      "action": 2511,
      "ĠWh": 2512,
      "son": 2513,
      "Ġindic": 2514,
      "Ġvol": 2515,
      "span": 2516,
      "Ġpath": 2517,
      "éĵ¶": 2518,
      "çİ¯äºļ": 2519,
      "itor": 2520,
      "æ¨¡": 2521,
      "çŁ³": 2522,
      "èµĮ": 2523,
      "Ġpot": 2524,
      "âĢĿâĢľ": 2525,
      "Cl": 2526,
      "é¦Ļ": 2527,
      "Ġbeh": 2528,
      "che": 2529,
      "thing": 2530,
      "ething": 2531,
      "Ġhaving": 2532,
      "åĩł": 2533,
      "æİ§": 2534,
      "åºľ": 2535,
      "Ġbusiness": 2536,
      "äº§åĵģ": 2537,
      "reen": 2538,
      "ĠThere": 2539,
      "Ġleft": 2540,
      "ilar": 2541,
      "éĹ®é¢ĺ": 2542,
      "å®Ŀ": 2543,
      "æĵ": 2544,
      "å¿ħ": 2545,
      "ffff": 2546,
      "è´£": 2547,
      "Ġinterest": 2548,
      "Ġtry": 2549,
      "ION": 2550,
      "riend": 2551,
      "åĪĹ": 2552,
      "essage": 2553,
      "äºĳ": 2554,
      "ING": 2555,
      "çĥŃ": 2556,
      "Ġcare": 2557,
      "åĦ¿": 2558,
      "html": 2559,
      "orn": 2560,
      "ding": 2561,
      "Ġorgan": 2562,
      "ĠLe": 2563,
      "ç¡®": 2564,
      "è¯Ħ": 2565,
      "Ġprovide": 2566,
      "Ġstep": 2567,
      "pk": 2568,
      "ĠAll": 2569,
      "arn": 2570,
      "å§ĭ": 2571,
      "MP": 2572,
      "Ġobtain": 2573,
      "Ġcirc": 2574,
      "ç»´": 2575,
      "æľīéĻĲ": 2576,
      "vert": 2577,
      "ä¼Ĺ": 2578,
      "Ġhapp": 2579,
      "Ġnext": 2580,
      "Ġhealth": 2581,
      "yt": 2582,
      "æĿ¿": 2583,
      "ä½İ": 2584,
      "ĠçĭĹä¸ĩ": 2585,
      "back": 2586,
      "Ġreally": 2587,
      "å®¢æĪ·": 2588,
      "ots": 2589,
      "raw": 2590,
      "Ġimportant": 2591,
      "Ġinvention": 2592,
      "mod": 2593,
      "ĠĠĠĠĠĠĠĠĠĠĠĠĠĠĠĠĠĠĠĠĠĠĠĠĠĠĠĠĠĠĠĠ": 2594,
      "indow": 2595,
      "éªĮ": 2596,
      "ç±³": 2597,
      "ä¹ī": 2598,
      "Ġmov": 2599,
      "Ġkey": 2600,
      "ploy": 2601,
      "oss": 2602,
      "Ġlittle": 2603,
      "ush": 2604,
      "ç¥¨": 2605,
      "Ġavailable": 2606,
      "æĹħ": 2607,
      "rel": 2608,
      "éĶĢ": 2609,
      "âĪ": 2610,
      "apt": 2611,
      "é»Ħ": 2612,
      "):": 2613,
      "Ġcomb": 2614,
      "ram": 2615,
      "####": 2616,
      "Ġarea": 2617,
      "åİħ": 2618,
      "ç¿": 2619,
      "To": 2620,
      "é¡µ": 2621,
      "You": 2622,
      "Ġret": 2623,
      "><": 2624,
      "duct": 2625,
      "ç»ıæµİ": 2626,
      "å¹²": 2627,
      "é£ŀ": 2628,
      "Ġselect": 2629,
      "Ġposition": 2630,
      "äººæ°ĳ": 2631,
      "code": 2632,
      "struct": 2633,
      "éĽĨåĽ¢": 2634,
      "UT": 2635,
      "AD": 2636,
      "å¼Ģå¥ĸ": 2637,
      "Ġpop": 2638,
      "ä½ı": 2639,
      "inter": 2640,
      "éĸ": 2641,
      "Ġgen": 2642,
      "cal": 2643,
      "Ġold": 2644,
      "Ġ_{": 2645,
      "åĪĻ": 2646,
      "gen": 2647,
      "å®ģ": 2648,
      "Ġide": 2649,
      "ĠHowever": 2650,
      "ape": 2651,
      "è¶Ĭ": 2652,
      "Ġlarge": 2653,
      "ised": 2654,
      "fer": 2655,
      "iron": 2656,
      "Ġbook": 2657,
      "Ġask": 2658,
      "Ġlocal": 2659,
      "è¯Ń": 2660,
      "ä¾¿": 2661,
      "oor": 2662,
      "Ġiss": 2663,
      "--------------------------------": 2664,
      "Ġbody": 2665,
      "String": 2666,
      "Ġput": 2667,
      "ina": 2668,
      "div": 2669,
      "www": 2670,
      "Ġcome": 2671,
      "Ġnever": 2672,
      "æĻ¯": 2673,
      "ift": 2674,
      "Ġbi": 2675,
      "Ġbuild": 2676,
      "ç¢": 2677,
      "Ġbas": 2678,
      "çº¦": 2679,
      "hor": 2680,
      "Ġpossible": 2681,
      "å©": 2682,
      "Ġsomething": 2683,
      "OT": 2684,
      "å¢ĥ": 2685,
      "aces": 2686,
      "Ġmean": 2687,
      "ats": 2688,
      "ems": 2689,
      "Ġhard": 2690,
      "Ġimage": 2691,
      "Ġexpect": 2692,
      "æĬķèµĦ": 2693,
      "èİ·": 2694,
      "åį³": 2695,
      "åĽŃ": 2696,
      "Ġhig": 2697,
      "Ġ\\[": 2698,
      "ĠSo": 2699,
      "respon": 2700,
      "Ġaccess": 2701,
      "cul": 2702,
      "ription": 2703,
      "Ġchange": 2704,
      "åĵª": 2705,
      "}{": 2706,
      "æµĭ": 2707,
      "http": 2708,
      "è´¢": 2709,
      "çłĶç©¶": 2710,
      "å¾ĭ": 2711,
      "Ġfurther": 2712,
      "frac": 2713,
      "pped": 2714,
      "Ġsit": 2715,
      "Ġinvest": 2716,
      "ĠTo": 2717,
      "ä»ĸä»¬": 2718,
      "æĬ¤": 2719,
      "Val": 2720,
      "AB": 2721,
      "Ġwom": 2722,
      "åı²": 2723,
      "ç¬¬ä¸Ģ": 2724,
      "è¨Ģ": 2725,
      "è´Ń": 2726,
      "Ġdescribed": 2727,
      "];": 2728,
      "icle": 2729,
      "Ġbetter": 2730,
      "Ġmonth": 2731,
      "éŁ³": 2732,
      "Ġill": 2733,
      "Ġfour": 2734,
      "Ġalways": 2735,
      "Ġmus": 2736,
      "upp": 2737,
      "æľĽ": 2738,
      "çĽĳ": 2739,
      "æł¹": 2740,
      "import": 2741,
      "çĽĺ": 2742,
      "æ´²": 2743,
      "org": 2744,
      "Ġcomput": 2745,
      "Ġfeel": 2746,
      "opt": 2747,
      "æ¼Ķ": 2748,
      "æĺ¨": 2749,
      "è½¯": 2750,
      "èĲ½": 2751,
      "comm": 2752,
      "ides": 2753,
      "SH": 2754,
      "æķĻèĤ²": 2755,
      "ĠNo": 2756,
      "hib": 2757,
      "ĠAmeric": 2758,
      "Ġimpro": 2759,
      "çģ«": 2760,
      "è¾ĥ": 2761,
      "Ġsurface": 2762,
      "ä¸ĸçķĮ": 2763,
      "Ġeng": 2764,
      "ait": 2765,
      "ci": 2766,
      "iments": 2767,
      "aim": 2768,
      "Ġcho": 2769,
      "ern": 2770,
      "æĸ°éĹ»": 2771,
      "åĨµ": 2772,
      "Id": 2773,
      "Ġinit": 2774,
      "Ġkeep": 2775,
      "ret": 2776,
      "Ġsens": 2777,
      "Ćą": 2778,
      "Ġrad": 2779,
      "åĽ´": 2780,
      "Ð¾": 2781,
      "ĠÃ": 2782,
      "ux": 2783,
      "éļ¾": 2784,
      "IP": 2785,
      "Ġmanag": 2786,
      "åĳ½": 2787,
      "Ġteam": 2788,
      "]\\]": 2789,
      "ĠPl": 2790,
      "å¾®": 2791,
      "æĺ¾": 2792,
      "gin": 2793,
      "Ġbro": 2794,
      "rap": 2795,
      "ered": 2796,
      "è¿Ļä¸ª": 2797,
      "åĶ®": 2798,
      "çħ§": 2799,
      "ormal": 2800,
      "Ġalong": 2801,
      "ĠâĢĺ": 2802,
      "Ġfamily": 2803,
      "æ¿": 2804,
      "å»ºè®¾": 2805,
      "ering": 2806,
      "é£Ł": 2807,
      "icense": 2808,
      "ored": 2809,
      "Ġproject": 2810,
      "Ġ`": 2811,
      "CO": 2812,
      "Res": 2813,
      "plic": 2814,
      "çĹħ": 2815,
      "Ġrepresent": 2816,
      "Ġthings": 2817,
      "Ġstring": 2818,
      "iving": 2819,
      "Ġservice": 2820,
      "ception": 2821,
      "rict": 2822,
      "rain": 2823,
      "UN": 2824,
      "ump": 2825,
      "iod": 2826,
      "co": 2827,
      "æĢģ": 2828,
      "td": 2829,
      "Ġsingle": 2830,
      "å®ĥ": 2831,
      ")(": 2832,
      "ird": 2833,
      "></": 2834,
      "åį¡": 2835,
      "idence": 2836,
      "Ð°": 2837,
      "åı¤": 2838,
      "aps": 2839,
      "æľīéĻĲåħ¬åı¸": 2840,
      "Ġ--": 2841,
      "æ¶ĵ": 2842,
      "Ġarg": 2843,
      "çĳ": 2844,
      "rem": 2845,
      "Fig": 2846,
      "Ġcharacter": 2847,
      "Ġprom": 2848,
      "ategory": 2849,
      "é¡¹çĽ®": 2850,
      "é¢ĳ": 2851,
      "ister": 2852,
      "ache": 2853,
      "Ġele": 2854,
      "Ġmag": 2855,
      "time": 2856,
      "go": 2857,
      "ĠWhen": 2858,
      "yle": 2859,
      "value": 2860,
      "ĠPh": 2861,
      "Ġmot": 2862,
      "As": 2863,
      "æıĲä¾Ľ": 2864,
      "ä¸Ńå¿ĥ": 2865,
      "å·´": 2866,
      "bo": 2867,
      "Ġspecific": 2868,
      "AM": 2869,
      "itle": 2870,
      "nal": 2871,
      "ury": 2872,
      "ris": 2873,
      "Ġtarget": 2874,
      "Ġsignal": 2875,
      "åĪĨå½©": 2876,
      "ç¼ĸ": 2877,
      "Ġlaw": 2878,
      "ling": 2879,
      "Ġtreatment": 2880,
      "================": 2881,
      "Ġgot": 2882,
      "ç¤¾ä¼ļ": 2883,
      "Ġopp": 2884,
      "ended": 2885,
      "uck": 2886,
      "Ġembodiment": 2887,
      "Ġvoid": 2888,
      "ĠThese": 2889,
      "ograph": 2890,
      "ĠåĪ©æĿ¥": 2891,
      "Ġhist": 2892,
      "ai": 2893,
      "Ġrese": 2894,
      "éĢļè¿ĩ": 2895,
      "åĢĻ": 2896,
      "ume": 2897,
      "Ġprovided": 2898,
      "Ġwon": 2899,
      "æŃ¦": 2900,
      "à¸": 2901,
      "Ġerror": 2902,
      "éĻ©": 2903,
      "mp": 2904,
      "cont": 2905,
      "Ġknown": 2906,
      "æĶ¿åºľ": 2907,
      "ffic": 2908,
      "Ġpress": 2909,
      "Ġplan": 2910,
      "Ġdays": 2911,
      "Ġaccording": 2912,
      "ä»ĭ": 2913,
      "Ġey": 2914,
      "load": 2915,
      "ç¶": 2916,
      "åħ´": 2917,
      "rivate": 2918,
      "Ġobserv": 2919,
      "åįı": 2920,
      "Ġanalysis": 2921,
      "atus": 2922,
      "Ġfull": 2923,
      "size": 2924,
      "Ġphot": 2925,
      "éĻ¤": 2926,
      "Ġrange": 2927,
      "Ġindivid": 2928,
      "Ġpred": 2929,
      "Ġcompon": 2930,
      "Ġsoft": 2931,
      "Ġconnect": 2932,
      "Ġtot": 2933,
      "é»ĳ": 2934,
      "Ĉć": 2935,
      "include": 2936,
      "èĮĥ": 2937,
      "ances": 2938,
      "å£°": 2939,
      "ĠIs": 2940,
      "class": 2941,
      "ung": 2942,
      "å¤§åŃ¦": 2943,
      "Ġuntil": 2944,
      "da": 2945,
      "æĿİ": 2946,
      "ey": 2947,
      "æĻ®": 2948,
      "èĹ": 2949,
      "Ar": 2950,
      "Ġcustom": 2951,
      "ĠBl": 2952,
      "ĠRes": 2953,
      "çĴ": 2954,
      "left": 2955,
      "è¾¹": 2956,
      "Ġdetail": 2957,
      "æ½": 2958,
      "ystem": 2959,
      "param": 2960,
      "Ġmeans": 2961,
      "ĠCol": 2962,
      "Ġremain": 2963,
      "Ðµ": 2964,
      "enc": 2965,
      "var": 2966,
      "æĤ¨": 2967,
      "uration": 2968,
      "ĠGr": 2969,
      "ours": 2970,
      "Ġevent": 2971,
      "eb": 2972,
      "ĠâĢĶ": 2973,
      "Ġcontent": 2974,
      "Ġconfig": 2975,
      "Ġsure": 2976,
      "Ġaway": 2977,
      "aster": 2978,
      "èģĺ": 2979,
      "cle": 2980,
      "ç¦»": 2981,
      "Ġsugg": 2982,
      "æĺ¨å¤©": 2983,
      "Ġroom": 2984,
      "pha": 2985,
      "å¯Į": 2986,
      "Ġgive": 2987,
      "æ²¹": 2988,
      "ĠAt": 2989,
      "ns": 2990,
      "Ġsuggest": 2991,
      "çŃĸ": 2992,
      "åħ»": 2993,
      "Ġ\\[[@": 2994,
      "éķĩ": 2995,
      "ler": 2996,
      "Ġsever": 2997,
      "çł´": 2998,
      "ique": 2999,
      "ĠFr": 3000,
      "Ġcost": 3001,
      "Ġthought": 3002,
      "umm": 3003,
      "Ġsimilar": 3004,
      "ç§¯": 3005,
      "ember": 3006,
      "Ġeither": 3007,
      "åº·": 3008,
      "ä½ĵèĤ²æĬķæ³¨": 3009,
      "åĥı": 3010,
      "Ġdri": 3011,
      "If": 3012,
      "Ġfriend": 3013,
      "Ġ]": 3014,
      "Ġhuman": 3015,
      "Ġunit": 3016,
      "å·²ç»ı": 3017,
      "Ġes": 3018,
      "Ġleg": 3019,
      "èµ°åĬ¿": 3020,
      "æ¬¢": 3021,
      "OS": 3022,
      "æ±½": 3023,
      "éĩĩ": 3024,
      "ids": 3025,
      "Ġable": 3026,
      "outh": 3027,
      "æĿĲ": 3028,
      "ä½¿çĶ¨": 3029,
      "iversity": 3030,
      "abel": 3031,
      "IL": 3032,
      "å·¥ç¨ĭ": 3033,
      "AA": 3034,
      "Ġflow": 3035,
      "Ġenc": 3036,
      "åŁŁ": 3037,
      "Ġsource": 3038,
      "uro": 3039,
      "_{\\": 3040,
      "çĽĬ": 3041,
      "ç®Ģ": 3042,
      "Ġlove": 3043,
      "æ¹ĸ": 3044,
      "Ġris": 3045,
      "å®īåħ¨": 3046,
      "èĩ´": 3047,
      "ãĢĢãĢĢ": 3048,
      "atures": 3049,
      "æĻº": 3050,
      "è²¸": 3051,
      "ched": 3052,
      "Ġenerg": 3053,
      "Ġmove": 3054,
      "ological": 3055,
      "Ġinvol": 3056,
      "è¯Ĩ": 3057,
      "file": 3058,
      "lete": 3059,
      "rences": 3060,
      "amb": 3061,
      "Ġassociated": 3062,
      "Ġair": 3063,
      "Ġsequ": 3064,
      "Ġpay": 3065,
      "å¼ĢæĪ·": 3066,
      "amples": 3067,
      "å®¤": 3068,
      "Ġbelie": 3069,
      "åľŁ": 3070,
      "Ġlog": 3071,
      "Ġspace": 3072,
      "åĢŁ": 3073,
      "Ġcou": 3074,
      "Ġorig": 3075,
      "UR": 3076,
      "Ġconsider": 3077,
      "Ġ=>": 3078,
      "side": 3079,
      "CC": 3080,
      "For": 3081,
      "Ġschool": 3082,
      "ç¾İåĽ½": 3083,
      "æī¹": 3084,
      "lish": 3085,
      "è®¯": 3086,
      "éº": 3087,
      "Ġcode": 3088,
      "****************": 3089,
      "Ġindividual": 3090,
      "Ġcheck": 3091,
      "å¦Ĥæŀľ": 3092,
      "Ġtimes": 3093,
      "ç½Ĺ": 3094,
      "ä¸Ķ": 3095,
      "Ġweek": 3096,
      "åħ«": 3097,
      "ĠSp": 3098,
      "Ġlater": 3099,
      "acy": 3100,
      "head": 3101,
      "Ġdidn": 3102,
      "æ®µ": 3103,
      "sw": 3104,
      "depend": 3105,
      "Ġvalues": 3106,
      "viron": 3107,
      "Ġ/*": 3108,
      "æ¦": 3109,
      "å³": 3110,
      "ĠSc": 3111,
      "OP": 3112,
      "Ġlayer": 3113,
      "èīº": 3114,
      "Ġwhether": 3115,
      "chan": 3116,
      "Ġclear": 3117,
      "ä¸¾": 3118,
      "å±ŀ": 3119,
      "rist": 3120,
      "åĩ»": 3121,
      "Ġdue": 3122,
      "ç¹": 3123,
      "ead": 3124,
      "pper": 3125,
      "date": 3126,
      "itch": 3127,
      "è³": 3128,
      "Ġcalled": 3129,
      "ĠUS": 3130,
      "const": 3131,
      "Ġshort": 3132,
      "Ġdisplay": 3133,
      "mun": 3134,
      "test": 3135,
      "Ġsal": 3136,
      "Ġunderstand": 3137,
      "Ġben": 3138,
      "Ġfac": 3139,
      "CL": 3140,
      "ection": 3141,
      "Ġpack": 3142,
      "çĨ": 3143,
      "éĺ¿": 3144,
      "éį": 3145,
      "å¾Ģ": 3146,
      "è¿ľ": 3147,
      "eq": 3148,
      "æĸĩåĮĸ": 3149,
      "Ġdr": 3150,
      "æĸŃ": 3151,
      "Ġgover": 3152,
      "éļı": 3153,
      "å¤±": 3154,
      "è¯»": 3155,
      "è®¸": 3156,
      "à¤": 3157,
      "Ġrecord": 3158,
      "éĶĽ": 3159,
      "Ġpract": 3160,
      "Ġphys": 3161,
      "ocument": 3162,
      "An": 3163,
      "å®ĺæĸ¹ç½ĳç«Ļ": 3164,
      "æĮī": 3165,
      "ready": 3166,
      "dev": 3167,
      "Ġsuccess": 3168,
      "Ġmen": 3169,
      "âĻ": 3170,
      "é¸": 3171,
      "å°Ĭ": 3172,
      "èĪª": 3173,
      "ino": 3174,
      "idd": 3175,
      "ocus": 3176,
      "é²": 3177,
      "oups": 3178,
      "Ġcertain": 3179,
      "å¿Ĺ": 3180,
      "refore": 3181,
      "ries": 3182,
      "ä¸įæĺ¯": 3183,
      "Ġperiod": 3184,
      "Ġid": 3185,
      "è±¡": 3186,
      "é¢Ŀ": 3187,
      "æĺ¥": 3188,
      "Ġparamet": 3189,
      "çĶŁæ´»": 3190,
      "Ġtext": 3191,
      "IM": 3192,
      "bf": 3193,
      "è½¯ä»¶": 3194,
      "no": 3195,
      "åĵį": 3196,
      "iter": 3197,
      "ounds": 3198,
      "éľĢè¦ģ": 3199,
      "Ġnear": 3200,
      "ables": 3201,
      "bar": 3202,
      "ajor": 3203,
      "Ġchildren": 3204,
      "fect": 3205,
      "Un": 3206,
      "ards": 3207,
      "ension": 3208,
      "Ġseveral": 3209,
      "Ġprob": 3210,
      "Ġexpression": 3211,
      "appä¸ĭè½½": 3212,
      "ocial": 3213,
      "èį¯": 3214,
      "Ġamount": 3215,
      "ç³»ç»Ł": 3216,
      "ibr": 3217,
      "åįĥ": 3218,
      "Ġabs": 3219,
      "List": 3220,
      "~\\": 3221,
      "imal": 3222,
      "ouble": 3223,
      "ĠIN": 3224,
      "Ġfail": 3225,
      "ç§ĳæĬĢ": 3226,
      "Tr": 3227,
      "çļĦäºº": 3228,
      "Ġ&&": 3229,
      "Ġder": 3230,
      "Ġsuper": 3231,
      "iver": 3232,
      "ĠBe": 3233,
      "ences": 3234,
      "Ġprevious": 3235,
      "ĉĉĉĉĉ": 3236,
      "ä¾ĭ": 3237,
      "ä¸»è¦ģ": 3238,
      "'m": 3239,
      "çľ¼": 3240,
      "Ġbig": 3241,
      "rc": 3242,
      "aring": 3243,
      "è´Ł": 3244,
      "çļĦä¸Ģ": 3245,
      "åħħ": 3246,
      "åī¯": 3247,
      "gether": 3248,
      "Ġblock": 3249,
      "Ġtogether": 3250,
      "Ġvarious": 3251,
      "Ġæĺ¨å¤©": 3252,
      "Ġpref": 3253,
      "åģ¥": 3254,
      "though": 3255,
      "å±ħ": 3256,
      "åı¯èĥ½": 3257,
      "åºķ": 3258,
      "Ġlower": 3259,
      "ä¹Ŀ": 3260,
      "æ»¡": 3261,
      "Ġrate": 3262,
      "çĶ·": 3263,
      "Ġdepend": 3264,
      "ç¯ĩ": 3265,
      "Ġhtt": 3266,
      "åģĩ": 3267,
      "Ġenergy": 3268,
      "ä¸Ĭæµ·": 3269,
      "åĺ": 3270,
      "èĭı": 3271,
      "Ġnetwork": 3272,
      "Ġfinal": 3273,
      "usion": 3274,
      "Ġproblem": 3275,
      "æł¸": 3276,
      "iple": 3277,
      "åĪĩ": 3278,
      "ources": 3279,
      "Ġstructure": 3280,
      "Ġcorrespon": 3281,
      "äºĴ": 3282,
      "æķħ": 3283,
      "ãĢı": 3284,
      "Ġdiag": 3285,
      "Ġincludes": 3286,
      "af": 3287,
      "ãĢİ": 3288,
      "sub": 3289,
      "Ġsat": 3290,
      "æĹ©é¤Ĳ": 3291,
      "alf": 3292,
      "å¨ģ": 3293,
      "ĠOr": 3294,
      "Ġhigher": 3295,
      "æī¿": 3296,
      "ä¾Ŀ": 3297,
      "IF": 3298,
      "Ġcompany": 3299,
      "lished": 3300,
      "éŃ": 3301,
      "åįĬ": 3302,
      "ä¹¡": 3303,
      "Ġexperience": 3304,
      "oney": 3305,
      "æ´»åĬ¨": 3306,
      "igned": 3307,
      "Err": 3308,
      "ands": 3309,
      "ged": 3310,
      "æĥħåĨµ": 3311,
      "æ£Ģ": 3312,
      "Ġsubject": 3313,
      "æĭĽèģĺ": 3314,
      "åŁ¹": 3315,
      "è´§": 3316,
      "osp": 3317,
      "uit": 3318,
      "Ġapplication": 3319,
      "Ġdiff": 3320,
      "Ġfalse": 3321,
      "çĻ¾å®¶ä¹Ĳ": 3322,
      "atory": 3323,
      "åĲĥ": 3324,
      "Ġsection": 3325,
      "angu": 3326,
      "åŃ©": 3327,
      "ĠInd": 3328,
      "Ġoften": 3329,
      "ĠThat": 3330,
      "èĴ": 3331,
      "çķĻ": 3332,
      "Ġgeneral": 3333,
      "Ġdiscuss": 3334,
      "ethyl": 3335,
      "Ġmicro": 3336,
      "çĵ": 3337,
      "Ġrequest": 3338,
      "Ġexc": 3339,
      "Ġpain": 3340,
      "off": 3341,
      "ĠApp": 3342,
      "Ġcommon": 3343,
      "Ġresponse": 3344,
      "Ġgame": 3345,
      "è§ī": 3346,
      "Cont": 3347,
      "())": 3348,
      "ĠAd": 3349,
      "æķ°æį®": 3350,
      "rior": 3351,
      "Ġrequired": 3352,
      "Ġrequire": 3353,
      "åĿĩ": 3354,
      "æľĢæĸ°": 3355,
      "PE": 3356,
      "æ²Ļ": 3357,
      "Ġprim": 3358,
      "çİ°åľ¨": 3359,
      "Ġtotal": 3360,
      "Ġmarket": 3361,
      "Ġ[@": 3362,
      "Ġhold": 3363,
      "Ġinput": 3364,
      "ç»ľ": 3365,
      "mission": 3366,
      "Ġdone": 3367,
      "ores": 3368,
      "aken": 3369,
      "Ġmass": 3370,
      "inc": 3371,
      "Ġbit": 3372,
      "Ġinfl": 3373,
      "Ġwar": 3374,
      "'re": 3375,
      "Ġmom": 3376,
      "Ġlik": 3377,
      "Ġalready": 3378,
      "Ġlot": 3379,
      "Col": 3380,
      "ydro": 3381,
      "order": 3382,
      "Ġemploy": 3383,
      "Ġlo": 3384,
      "Ġcontact": 3385,
      "Ġvir": 3386,
      "urs": 3387,
      "Ġcourse": 3388,
      "bject": 3389,
      "ribution": 3390,
      "ogn": 3391,
      "mit": 3392,
      "æ°¸": 3393,
      "Ġcommunic": 3394,
      "Ġdise": 3395,
      "orth": 3396,
      "è®¾è®¡": 3397,
      "Ġfore": 3398,
      "ties": 3399,
      "plement": 3400,
      "Ġgre": 3401,
      "olution": 3402,
      "pi": 3403,
      "åĽłä¸º": 3404,
      "Ġnull": 3405,
      "Ġaccount": 3406,
      "åĸľ": 3407,
      "Ġspecial": 3408,
      "Ġsubst": 3409,
      "Ġtemper": 3410,
      "Ġdevelopment": 3411,
      "ground": 3412,
      "iff": 3413,
      "vironment": 3414,
      "Ġwrit": 3415,
      "Ġcomplet": 3416,
      "åİĭ": 3417,
      "åĪ¸": 3418,
      "åĪĿ": 3419,
      "enn": 3420,
      "âĻĢ": 3421,
      "å°¼": 3422,
      "Ġtable": 3423,
      "use": 3424,
      "è¡Įä¸ļ": 3425,
      "è¡¨ç¤º": 3426,
      "æ©": 3427,
      "TR": 3428,
      "ç»Ī": 3429,
      "ç»ĩ": 3430,
      "Sh": 3431,
      "éĻį": 3432,
      "And": 3433,
      "æ±ī": 3434,
      "itted": 3435,
      "Ġäºļæ¸¸": 3436,
      "On": 3437,
      "ending": 3438,
      "ressed": 3439,
      "åºĨ": 3440,
      "ley": 3441,
      "æ¸©": 3442,
      "å®¢æĪ·ç«¯": 3443,
      "æŃ»": 3444,
      "uation": 3445,
      "Ġsite": 3446,
      "Ġmax": 3447,
      "omet": 3448,
      "Ġappear": 3449,
      "Ġdom": 3450,
      "å¯Ĩ": 3451,
      "Ġmaking": 3452,
      "Ġfar": 3453,
      "ąć": 3454,
      "Ġenough": 3455,
      "æĹı": 3456,
      "Ã¤": 3457,
      "au": 3458,
      "Ġclaim": 3459,
      "Ġconditions": 3460,
      "wh": 3461,
      "åŃ£": 3462,
      "ivity": 3463,
      "å±Ĥ": 3464,
      "çĽ¸åħ³": 3465,
      "å·Ŀ": 3466,
      "Ġversion": 3467,
      "cm": 3468,
      "ibility": 3469,
      "SS": 3470,
      "Ġbelow": 3471,
      "Ġstrong": 3472,
      "Ġcreate": 3473,
      "ival": 3474,
      "oph": 3475,
      "bb": 3476,
      "ç´ł": 3477,
      "ixed": 3478,
      "æŃĮ": 3479,
      "LO": 3480,
      "ustr": 3481,
      "åħ°": 3482,
      "ç»ĵæŀľ": 3483,
      "verage": 3484,
      "Ġbreak": 3485,
      "arent": 3486,
      "Ġtell": 3487,
      "atter": 3488,
      "Ġhref": 3489,
      "ä½Ļ": 3490,
      "Ġkind": 3491,
      "Ġgovern": 3492,
      "Ġexist": 3493,
      "éĩįè¦ģ": 3494,
      "Ġlevels": 3495,
      "Data": 3496,
      "çºª": 3497,
      "ags": 3498,
      "resh": 3499,
      "IR": 3500,
      "ÑĤ": 3501,
      "Ġreason": 3502,
      "Ġmajor": 3503,
      "Ġface": 3504,
      "Ġregion": 3505,
      "Ġacross": 3506,
      "æ¤": 3507,
      "asing": 3508,
      "æĸ¹éĿ¢": 3509,
      "utes": 3510,
      "ga": 3511,
      "Ġstor": 3512,
      "empl": 3513,
      "iles": 3514,
      "Ġvar": 3515,
      "ternal": 3516,
      "Ð¸": 3517,
      "èŃ¦": 3518,
      "Ġver": 3519,
      "å¿µ": 3520,
      "Ġamong": 3521,
      "çĶŁäº§": 3522,
      "ä¸ĵä¸ļ": 3523,
      "medi": 3524,
      "åį´": 3525,
      "Ġrele": 3526,
      "ĠWith": 3527,
      "æŀĲ": 3528,
      "æĹ©çĤ¹": 3529,
      "Ġhouse": 3530,
      "\";": 3531,
      "ideo": 3532,
      "Ġmechan": 3533,
      "éĴŁ": 3534,
      "çıŃ": 3535,
      "ĠUniversity": 3536,
      "ators": 3537,
      "ç«ŀ": 3538,
      "Al": 3539,
      "Ġoutput": 3540,
      "Ġworking": 3541,
      "æī¾": 3542,
      "åª": 3543,
      "åĿļ": 3544,
      "ãĢıãĢİ": 3545,
      "ules": 3546,
      "çķ¥": 3547,
      "ession": 3548,
      "Ġweight": 3549,
      "Ġcy": 3550,
      "Ġred": 3551,
      "II": 3552,
      "ä¸´": 3553,
      "éĵģ": 3554,
      "Ġwhy": 3555,
      "erc": 3556,
      "Ġmar": 3557,
      "âĪĴ": 3558,
      "åį°": 3559,
      "ĠAN": 3560,
      "è¡Ģ": 3561,
      "Ġbase": 3562,
      "log": 3563,
      "Ġdetect": 3564,
      "aff": 3565,
      "äº²": 3566,
      "ç½ĳç»ľ": 3567,
      "ĠĠĠĠĠĠĠĠĠĠĠĠĠ": 3568,
      "éĤĢ": 3569,
      "ĠĠĠĠĠĠĠĠĠĠĠĠĠĠĠĠĠĠĠĠĠĠĠ": 3570,
      "ENT": 3571,
      "çĬ¶": 3572,
      "ortun": 3573,
      "åĲ¬": 3574,
      "What": 3575,
      "Ġservices": 3576,
      "åĲĪä½ľ": 3577,
      "ips": 3578,
      "px": 3579,
      "çĽ®åīį": 3580,
      "++": 3581,
      "hem": 3582,
      "Ġsepar": 3583,
      "åģľ": 3584,
      "Ġcult": 3585,
      "åĲ§": 3586,
      "Ġthough": 3587,
      "Ġpotential": 3588,
      "Ġactivity": 3589,
      "umn": 3590,
      "ç»Ĩ": 3591,
      "imum": 3592,
      "\"\"": 3593,
      "Ġshows": 3594,
      "alpha": 3595,
      "most": 3596,
      "Ġreview": 3597,
      "Ġcrit": 3598,
      "MA": 3599,
      "aced": 3600,
      "EX": 3601,
      "util": 3602,
      "æĹ¶åĢĻ": 3603,
      "Ġthing": 3604,
      "mon": 3605,
      "sequ": 3606,
      "Category": 3607,
      "Ġden": 3608,
      "æ¶¨": 3609,
      "Value": 3610,
      "Ġfrequ": 3611,
      "çīĽ": 3612,
      "MS": 3613,
      "Ġmeet": 3614,
      "ucle": 3615,
      "Ġfood": 3616,
      "list": 3617,
      "ĠGod": 3618,
      "ä»ħ": 3619,
      "ĠTHE": 3620,
      "icon": 3621,
      "Ġgroups": 3622,
      "ä¸¥": 3623,
      "å®¡": 3624,
      "Ġacid": 3625,
      "Ġcaus": 3626,
      "ches": 3627,
      "sel": 3628,
      "betå®ĺç½ĳ": 3629,
      "ried": 3630,
      "uture": 3631,
      "ison": 3632,
      "è®°èĢħ": 3633,
      "æ³¢": 3634,
      "å¼Ģå§ĭ": 3635,
      "Ġnight": 3636,
      "ä»¥åıĬ": 3637,
      "Ġbecome": 3638,
      "çµ": 3639,
      "åį«": 3640,
      "åĲĮæĹ¶": 3641,
      "Ġelement": 3642,
      "pping": 3643,
      "ribute": 3644,
      "ĠLicense": 3645,
      "çĶ³": 3646,
      "Ġvia": 3647,
      "Ġann": 3648,
      "Ġflu": 3649,
      "rect": 3650,
      "empt": 3651,
      "Ġseen": 3652,
      "Ġonce": 3653,
      "Ġchanges": 3654,
      "è®Ń": 3655,
      "ä¸ĥ": 3656,
      "å¥½çļĦ": 3657,
      "Ġcolor": 3658,
      "ava": 3659,
      "éħĴåºĹ": 3660,
      "ij": 3661,
      "ges": 3662,
      "Ġdep": 3663,
      "Ġcases": 3664,
      "Ġterms": 3665,
      "Ġpoly": 3666,
      "Ġquality": 3667,
      "Ġrelations": 3668,
      "è¾ĵ": 3669,
      "sec": 3670,
      "å¤®": 3671,
      "æĪĲä¸º": 3672,
      "ruction": 3673,
      "Ġembodiments": 3674,
      "illed": 3675,
      "Ġmor": 3676,
      "US": 3677,
      "istic": 3678,
      "çĶ»": 3679,
      "Ġresearch": 3680,
      "åħįè´¹": 3681,
      "æľ¨": 3682,
      "åİĤ": 3683,
      "Ġneg": 3684,
      "éł": 3685,
      "Ġjob": 3686,
      "è¦ģæ±Ĥ": 3687,
      "icy": 3688,
      "è§Ĵ": 3689,
      "Set": 3690,
      "wards": 3691,
      "åŁİå¸Ĥ": 3692,
      "ued": 3693,
      "æĺ¯ä¸Ģ": 3694,
      "å¦Ĥä½ķ": 3695,
      "Ġfocus": 3696,
      "????": 3697,
      "OL": 3698,
      "Ġpast": 3699,
      "ĠTe": 3700,
      "äººçļĦ": 3701,
      "èĪ°": 3702,
      "But": 3703,
      "where": 3704,
      "Ġportion": 3705,
      "æĻļ": 3706,
      "!!": 3707,
      "ç¬¬äºĮ": 3708,
      "æĿ¥æºĲ": 3709,
      "ĠMar": 3710,
      "å¹¸": 3711,
      "rodu": 3712,
      "çĶµåŃĲ": 3713,
      "åĸĦ": 3714,
      "Ġaction": 3715,
      "Ġrespons": 3716,
      "Ġmeasure": 3717,
      "ones": 3718,
      "aug": 3719,
      "Ġ||": 3720,
      "éĿ©": 3721,
      "Ġcut": 3722,
      "Ġtook": 3723,
      "äººåĳĺ": 3724,
      "è®²": 3725,
      "åħµ": 3726,
      "obal": 3727,
      "äºĨä¸Ģ": 3728,
      "Ġcame": 3729,
      "é±": 3730,
      "éľ¸": 3731,
      "met": 3732,
      "Ġsystems": 3733,
      "ohn": 3734,
      "Ġste": 3735,
      "Ġcompared": 3736,
      "ops": 3737,
      "Se": 3738,
      "Ġperformed": 3739,
      "osis": 3740,
      "Ġçİ¯äºļ": 3741,
      "Ġearly": 3742,
      "Ġprefer": 3743,
      "Ġquestion": 3744,
      "illion": 3745,
      "rang": 3746,
      "Ġbar": 3747,
      "Ġlimit": 3748,
      "Ġnecess": 3749,
      "ney": 3750,
      "Ġlength": 3751,
      "ĠWhat": 3752,
      "åĪĨå¿«": 3753,
      "å®£": 3754,
      "Ġsolution": 3755,
      "$$": 3756,
      "Ġsil": 3757,
      "è¿Ļæł·": 3758,
      "OD": 3759,
      "Ġprivate": 3760,
      "Ġäºļç¾İ": 3761,
      "Ġuint": 3762,
      "éĢĤ": 3763,
      "rite": 3764,
      "itud": 3765,
      "ĠEng": 3766,
      "ev": 3767,
      "åħ¶ä»ĸ": 3768,
      "é±¼": 3769,
      "åıĳå¸ĥ": 3770,
      "ici": 3771,
      "å¤§çļĦ": 3772,
      "Â°": 3773,
      "init": 3774,
      "åĨħå®¹": 3775,
      "ached": 3776,
      "inary": 3777,
      "Ġincrease": 3778,
      "Ġlooking": 3779,
      "EL": 3780,
      "Ġrole": 3781,
      "ĠçľŁäºº": 3782,
      "ĈĈ": 3783,
      "Ġimplement": 3784,
      "Ġcross": 3785,
      "ä»·æł¼": 3786,
      "èµ°åĬ¿åĽ¾": 3787,
      "Ġcomplex": 3788,
      "Ġage": 3789,
      "Ġintegr": 3790,
      "Ġhowever": 3791,
      "Ġaddress": 3792,
      "Ġwomen": 3793,
      "ĠOne": 3794,
      "lied": 3795,
      "path": 3796,
      "Ġmember": 3797,
      "Wh": 3798,
      "åħ¨åĽ½": 3799,
      "âĢĺ": 3800,
      "ened": 3801,
      "ename": 3802,
      "åī§": 3803,
      "éĬ": 3804,
      "ising": 3805,
      "Ġprotein": 3806,
      "Ġmemory": 3807,
      "rug": 3808,
      "lor": 3809,
      "Ġpub": 3810,
      "CD": 3811,
      "è©": 3812,
      "åįĸ": 3813,
      "Ġillustr": 3814,
      "Ġmembers": 3815,
      "void": 3816,
      "åłĤ": 3817,
      "Ġstudies": 3818,
      "Ġnormal": 3819,
      "åĨł": 3820,
      "Ġothers": 3821,
      "ĠChrist": 3822,
      "Ġdefined": 3823,
      "åĲī": 3824,
      "annel": 3825,
      "anguage": 3826,
      "Ġadj": 3827,
      "msg": 3828,
      "IV": 3829,
      "ze": 3830,
      "Ġce": 3831,
      "Ġfilm": 3832,
      "aging": 3833,
      "PS": 3834,
      "Ġep": 3835,
      "IB": 3836,
      "åĨĻ": 3837,
      "chie": 3838,
      "ĠOF": 3839,
      "width": 3840,
      "elta": 3841,
      "Ġ**": 3842,
      "åľĭ": 3843,
      "Ġeval": 3844,
      "å¼Ģåħĥ": 3845,
      "cd": 3846,
      "Ġfront": 3847,
      "æĽ¾": 3848,
      "Ġlink": 3849,
      "Ġconcent": 3850,
      "è·Ł": 3851,
      "Ġtw": 3852,
      "Ġtalk": 3853,
      "Ġpattern": 3854,
      "Ġinf": 3855,
      "éĤĢè¯·": 3856,
      "Ġincreased": 3857,
      "ç¸": 3858,
      "äº«": 3859,
      "Ġsoftware": 3860,
      "Ġtre": 3861,
      "Ġpage": 3862,
      "äº¤æĺĵ": 3863,
      "raft": 3864,
      "Ġbenef": 3865,
      "tic": 3866,
      "Ġmind": 3867,
      "Ġeffects": 3868,
      "å¥ĩ": 3869,
      "ero": 3870,
      "é¦Ļæ¸¯": 3871,
      "åİĨåı²": 3872,
      "åĪ°äºĨ": 3873,
      "å¸Į": 3874,
      "ĠAfter": 3875,
      "Get": 3876,
      "ANG": 3877,
      "ä¸ŃçļĦ": 3878,
      "bit": 3879,
      "è»": 3880,
      "roid": 3881,
      "num": 3882,
      "æĭħ": 3883,
      "func": 3884,
      "Ġrisk": 3885,
      "conom": 3886,
      "ams": 3887,
      "Ġprint": 3888,
      "Ġadded": 3889,
      "Ġtool": 3890,
      "æīĢä»¥": 3891,
      "åĵģçīĮ": 3892,
      "^{\\": 3893,
      "çªģ": 3894,
      "cn": 3895,
      "ĠCo": 3896,
      "å·§": 3897,
      "è¿ĻäºĽ": 3898,
      "ç»Ħç»ĩ": 3899,
      "iation": 3900,
      "äº§ä¸ļ": 3901,
      "static": 3902,
      "æ±½è½¦": 3903,
      "Ġque": 3904,
      "Ġfeatures": 3905,
      "Ġcoun": 3906,
      "ç¨³": 3907,
      "Ġtrad": 3908,
      "Ġsocial": 3909,
      "Ġneeds": 3910,
      "imate": 3911,
      "Ġreceived": 3912,
      "Ġever": 3913,
      "è¿ĺæĺ¯": 3914,
      "å¯Ł": 3915,
      "æ¬§": 3916,
      "ãĦ": 3917,
      "å¥Ĺ": 3918,
      "Ġprovides": 3919,
      "Im": 3920,
      "éĥ¨åĪĨ": 3921,
      "ilt": 3922,
      "çĸĹ": 3923,
      "word": 3924,
      "pre": 3925,
      "dis": 3926,
      "ocal": 3927,
      "odes": 3928,
      "Ġproducts": 3929,
      "å¤§å®¶": 3930,
      "hing": 3931,
      "PP": 3932,
      "Ġupon": 3933,
      "itting": 3934,
      "vention": 3935,
      "æŃ¢": 3936,
      "å¤Ł": 3937,
      "çĭ¬": 3938,
      "Ġrepl": 3939,
      "Ġang": 3940,
      "Ġestab": 3941,
      "nection": 3942,
      "Ġcopy": 3943,
      "Ġmethods": 3944,
      "èĸ": 3945,
      "Ġdeg": 3946,
      "åįķåıĮ": 3947,
      "Ġenvironment": 3948,
      "èĽ": 3949,
      "ĠCar": 3950,
      "Ġnat": 3951,
      "Ġthird": 3952,
      "çĽ´æĴŃ": 3953,
      "è½»": 3954,
      "ĠMy": 3955,
      "åĪĺ": 3956,
      "Ġstandard": 3957,
      "Ġyet": 3958,
      "æį¢": 3959,
      "////////": 3960,
      "èĵ": 3961,
      "åįĵ": 3962,
      "Ġinj": 3963,
      "åįł": 3964,
      "Ġsent": 3965,
      "çĩ": 3966,
      "Ġobtained": 3967,
      "Ġheart": 3968,
      "Ġmoney": 3969,
      "rix": 3970,
      "ament": 3971,
      "åĪĨæŀĲ": 3972,
      "ä¸°": 3973,
      "pm": 3974,
      "å¼Ģåħĥæ£ĭçīĮ": 3975,
      "Ġtemperature": 3976,
      "elt": 3977,
      "Ġquant": 3978,
      "my": 3979,
      "Ġland": 3980,
      "å¾Īå¤ļ": 3981,
      "åŃ¦çĶŁ": 3982,
      "xy": 3983,
      "oud": 3984,
      "Ġhost": 3985,
      "lock": 3986,
      "æĥł": 3987,
      "ynam": 3988,
      "ä¹Łæĺ¯": 3989,
      "state": 3990,
      "è§Ĩé¢ĳ": 3991,
      "Ġmakes": 3992,
      "oat": 3993,
      "ä½ľä¸º": 3994,
      "çº¿ä¸Ĭ": 3995,
      "ME": 3996,
      "ä½Ĩæĺ¯": 3997,
      "éĻĪ": 3998,
      "irm": 3999,
      "âĢĶâĢĶ": 4000,
      "Ġæĸ°": 4001,
      "ogen": 4002,
      "Ð½": 4003,
      "Ġnil": 4004,
      "Ġcondition": 4005,
      "ä¸įèĥ½": 4006,
      "æľĥ": 4007,
      "No": 4008,
      "FFFF": 4009,
      "Ġonline": 4010,
      "Ġlearn": 4011,
      "å¤«": 4012,
      "ĠThen": 4013,
      "trans": 4014,
      "Ġinvestig": 4015,
      "izing": 4016,
      "Ġoffic": 4017,
      "ĠPr": 4018,
      "Ġcard": 4019,
      "Ġwent": 4020,
      "çŁ¥éģĵ": 4021,
      "Ġprior": 4022,
      "field": 4023,
      "å½±åĵį": 4024,
      "Ġrat": 4025,
      "SP": 4026,
      "Ġproperty": 4027,
      "åľ°åĿĢ": 4028,
      "ĠAmerican": 4029,
      "åŃ¦ä¹ł": 4030,
      "astic": 4031,
      "Ġreference": 4032,
      "Ġbring": 4033,
      "ls": 4034,
      "'ve": 4035,
      "mu": 4036,
      "Ġcourt": 4037,
      "item": 4038,
      "icult": 4039,
      "ĠLet": 4040,
      "Ġblood": 4041,
      "ĠUnited": 4042,
      "ires": 4043,
      "Ġdat": 4044,
      "çļĩ": 4045,
      "å¾ħ": 4046,
      "Ġsearch": 4047,
      "ensity": 4048,
      "Ġwall": 4049,
      "amma": 4050,
      "Ġperformance": 4051,
      "now": 4052,
      "ĠMan": 4053,
      "Ġpoints": 4054,
      "ĠCent": 4055,
      "Ġincluded": 4056,
      "åĩı": 4057,
      "Ġwebs": 4058,
      "Ġseem": 4059,
      "anced": 4060,
      "éĨ": 4061,
      "å¸Ń": 4062,
      "Ġauthor": 4063,
      "box": 4064,
      "Object": 4065,
      "Ġcontroll": 4066,
      "æĵį": 4067,
      "Ġclin": 4068,
      "Ġprotect": 4069,
      "gl": 4070,
      "ĠBy": 4071,
      "Ġconduct": 4072,
      "cular": 4073,
      "Is": 4074,
      "éĥ½æĺ¯": 4075,
      "æīĢæľī": 4076,
      "ä»¤": 4077,
      "Ġtaken": 4078,
      "ills": 4079,
      "Ġtoday": 4080,
      "function": 4081,
      "å·¦": 4082,
      "Ġparent": 4083,
      "Ġclose": 4084,
      "bt": 4085,
      "Ġapproach": 4086,
      "mber": 4087,
      "minist": 4088,
      "ambda": 4089,
      "Ġ?": 4090,
      "è¯¾": 4091,
      "ĠMay": 4092,
      "è¯į": 4093,
      "Ġoption": 4094,
      "ä¹ħ": 4095,
      "Ġhttp": 4096,
      "æ¯į": 4097,
      "but": 4098,
      "ilit": 4099,
      "éĻĨ": 4100,
      "Ġadditional": 4101,
      "wise": 4102,
      "ä»£çĲĨ": 4103,
      "Ġwhole": 4104,
      "ULL": 4105,
      "Ġparticip": 4106,
      "Ġpan": 4107,
      "çĤº": 4108,
      "light": 4109,
      "æĸ¹å¼ı": 4110,
      "Ġrelated": 4111,
      "Ġworks": 4112,
      "Ġexec": 4113,
      "æĹħæ¸¸": 4114,
      "Ġcoll": 4115,
      "Ġspect": 4116,
      "Ġdirection": 4117,
      "è´µ": 4118,
      "With": 4119,
      "æĽ²": 4120,
      "'ll": 4121,
      "Ġdoing": 4122,
      "oved": 4123,
      "ottom": 4124,
      "era": 4125,
      "ĠBr": 4126,
      "Ph": 4127,
      "Ġentire": 4128,
      "ĠFig": 4129,
      "Ġdisease": 4130,
      "Ġpaper": 4131,
      "çļĦæĺ¯": 4132,
      "Ġframe": 4133,
      "abor": 4134,
      "inding": 4135,
      "']": 4136,
      "é¼": 4137,
      "çŁŃ": 4138,
      "æŁĲ": 4139,
      "åħ¶ä¸Ń": 4140,
      "ĠCan": 4141,
      "Ġachie": 4142,
      "ĠAss": 4143,
      "Ġfuture": 4144,
      "ç½ĳä¸Ĭ": 4145,
      "Ġsimple": 4146,
      "Ġwalk": 4147,
      "Ġhours": 4148,
      "Ġmonths": 4149,
      "ç»§": 4150,
      "Ġhalf": 4151,
      "APP": 4152,
      "Ġmultiple": 4153,
      "atively": 4154,
      "Ġload": 4155,
      "cing": 4156,
      "verse": 4157,
      "room": 4158,
      "/>": 4159,
      "Ġelectro": 4160,
      "æŀģéĢŁ": 4161,
      "rs": 4162,
      "File": 4163,
      "Ã¡": 4164,
      "Ġstatic": 4165,
      "Gr": 4166,
      "iting": 4167,
      "çĢ": 4168,
      "ply": 4169,
      "çĶ°": 4170,
      "Ġindust": 4171,
      "Error": 4172,
      "amm": 4173,
      "Ġregard": 4174,
      "[]": 4175,
      "Ććą": 4176,
      "oper": 4177,
      "é¦Ĩ": 4178,
      "çº³": 4179,
      "åªĴ": 4180,
      "èĭ¹": 4181,
      "Ġtold": 4182,
      "Ġbegin": 4183,
      "Pl": 4184,
      "orld": 4185,
      "éĿł": 4186,
      "oll": 4187,
      "èµ¢": 4188,
      "Ġblack": 4189,
      "dependent": 4190,
      "åĳ³": 4191,
      "Ġcreat": 4192,
      "Ġimprove": 4193,
      "Ġeyes": 4194,
      "posed": 4195,
      "Ġquick": 4196,
      "å°Ĭé¾Ļ": 4197,
      "æĭ©": 4198,
      "èĳĹ": 4199,
      "ĠCont": 4200,
      "å°½": 4201,
      "èī¯": 4202,
      "All": 4203,
      "Ġasked": 4204,
      "ÑĢ": 4205,
      "Ġdig": 4206,
      "æ£ĭçīĮæ¸¸æĪı": 4207,
      "Ġclos": 4208,
      "åŃ¦æł¡": 4209,
      "eral": 4210,
      "Ġbehav": 4211,
      "aint": 4212,
      "é¹": 4213,
      "èĭ¹æŀľ": 4214,
      "Ġstudents": 4215,
      "æī§": 4216,
      "Ġseries": 4217,
      "Ġrather": 4218,
      "Ġeasy": 4219,
      "Ġsem": 4220,
      "ptr": 4221,
      "andom": 4222,
      "=\\": 4223,
      "æĹĹèĪ°": 4224,
      "Ñģ": 4225,
      "Ġneeded": 4226,
      "èµĦæĸĻ": 4227,
      "ĠEn": 4228,
      "Ġcommunity": 4229,
      "ili": 4230,
      "èĩªå·±çļĦ": 4231,
      "ledge": 4232,
      "âĻĢâĻĢ": 4233,
      "Ġur": 4234,
      "ĠMe": 4235,
      "åĲ¦": 4236,
      "cret": 4237,
      "Ġdam": 4238,
      "Ġconsist": 4239,
      "æĶ»": 4240,
      "pose": 4241,
      "igma": 4242,
      "åĩĢ": 4243,
      "Add": 4244,
      "Ġpercent": 4245,
      "Ġ__": 4246,
      "iction": 4247,
      "Ġdeath": 4248,
      "see": 4249,
      "~~": 4250,
      "Ġfive": 4251,
      "na": 4252,
      "joy": 4253,
      "ulated": 4254,
      "åĵĪ": 4255,
      "ML": 4256,
      "une": 4257,
      "SD": 4258,
      "Ġobserved": 4259,
      "Ġmoment": 4260,
      "Ġcannot": 4261,
      "based": 4262,
      "æ¥¼": 4263,
      "iqu": 4264,
      "char": 4265,
      "ĠCoun": 4266,
      "inks": 4267,
      "Ġoccur": 4268,
      "Ġrelationship": 4269,
      "There": 4270,
      "ç´¢": 4271,
      "hel": 4272,
      "ends": 4273,
      "ä»ĺ": 4274,
      "ball": 4275,
      "ĠSte": 4276,
      "Ġpersonal": 4277,
      "iol": 4278,
      "Ġpressure": 4279,
      "ully": 4280,
      "Sc": 4281,
      "Ġå¤§": 4282,
      "ç½ĳæĬķ": 4283,
      "Ġdoesn": 4284,
      "çİ¯å¢ĥ": 4285,
      "itional": 4286,
      "æĸĹ": 4287,
      "Ġdemon": 4288,
      "ĠåĮĹäº¬": 4289,
      "Ġarray": 4290,
      "uild": 4291,
      "ĠInst": 4292,
      "Ġminutes": 4293,
      "Ġcountry": 4294,
      "Ġpatient": 4295,
      "å¸®": 4296,
      "TE": 4297,
      "éĤĢè¯·çłģ": 4298,
      "æ¾": 4299,
      "};": 4300,
      "åŃ©åŃĲ": 4301,
      "atal": 4302,
      "Ġrespectively": 4303,
      "Ġevidence": 4304,
      "åħ¸": 4305,
      "Ġfav": 4306,
      "Ġoffer": 4307,
      "å®ŀçİ°": 4308,
      "ferences": 4309,
      "sl": 4310,
      "ike": 4311,
      "ç§»": 4312,
      "ãĢĮ": 4313,
      "Ġstarted": 4314,
      "Ġsays": 4315,
      "èĤ¡ä»½": 4316,
      "èªī": 4317,
      "ony": 4318,
      "CP": 4319,
      "Ġdeal": 4320,
      "Ġactually": 4321,
      "Ġ{#": 4322,
      "Ġaccept": 4323,
      "éĿŀå¸¸": 4324,
      "Ġaffect": 4325,
      "Ġess": 4326,
      "æľºæŀĦ": 4327,
      "Ġâ": 4328,
      "Ġinstall": 4329,
      "perty": 4330,
      "ä¸ĩåħĥ": 4331,
      "ćć": 4332,
      "Ġgovernment": 4333,
      "ãĢį": 4334,
      "æīĺ": 4335,
      "Ġindex": 4336,
      "èıľ": 4337,
      "ains": 4338,
      "Ġpie": 4339,
      "pecially": 4340,
      "point": 4341,
      "åĪĨéĴŁ": 4342,
      "istance": 4343,
      "onal": 4344,
      "top": 4345,
      "Ġmedia": 4346,
      "uk": 4347,
      "bed": 4348,
      "è¡Ĺ": 4349,
      "Ġexam": 4350,
      "Ġpo": 4351,
      "è¶³çĲĥ": 4352,
      "utions": 4353,
      "ening": 4354,
      "ster": 4355,
      "Ġhom": 4356,
      "Ġcalcul": 4357,
      "Ġoperation": 4358,
      "å¤ı": 4359,
      "Ġcompos": 4360,
      "ories": 4361,
      "Ġcomputer": 4362,
      "ĠCal": 4363,
      "Ġmessage": 4364,
      "aged": 4365,
      "ç£": 4366,
      "Ġreported": 4367,
      "Ġdecre": 4368,
      "Ġvideo": 4369,
      "obile": 4370,
      "Ġbound": 4371,
      "æĻĤ": 4372,
      "pace": 4373,
      "Ġformed": 4374,
      "Ġdocument": 4375,
      "Ġinhib": 4376,
      "info": 4377,
      "å®³": 4378,
      "ui": 4379,
      "oice": 4380,
      "itten": 4381,
      "ĠJohn": 4382,
      "ç»į": 4383,
      "IZ": 4384,
      "'d": 4385,
      "åı³": 4386,
      "å²ģ": 4387,
      "è¿İ": 4388,
      "Ġshowed": 4389,
      "è·Į": 4390,
      "Ġcompet": 4391,
      "å¤ľ": 4392,
      "CE": 4393,
      "ilities": 4394,
      "Ġgrowth": 4395,
      "ä»£è¡¨": 4396,
      "Ġpolit": 4397,
      "Ġjo": 4398,
      "Ġcity": 4399,
      "æĩ": 4400,
      "---": 4401,
      "book": 4402,
      "Ġloss": 4403,
      "ging": 4404,
      "Ġalmost": 4405,
      "Ġmatter": 4406,
      "æĶ¯æĮģ": 4407,
      "å²Ľ": 4408,
      "index": 4409,
      "Ġdim": 4410,
      "ceed": 4411,
      "ĠHis": 4412,
      "Ġelements": 4413,
      "https": 4414,
      "App": 4415,
      "atform": 4416,
      "èĥ½åĬĽ": 4417,
      "Ġhy": 4418,
      "ï¿½ï¿½ï¿½ï¿½ï¿½": 4419,
      "idered": 4420,
      "è²¸æ¬¾": 4421,
      "Ġtypes": 4422,
      "Ġcollect": 4423,
      "Ġintrodu": 4424,
      "æ¥Ń": 4425,
      "åħ³äºİ": 4426,
      "link": 4427,
      "''": 4428,
      "Ġdie": 4429,
      "gress": 4430,
      "Ġhot": 4431,
      "èµĦæºĲ": 4432,
      "js": 4433,
      "ĠMore": 4434,
      "table": 4435,
      "ributed": 4436,
      "Ġrot": 4437,
      "Par": 4438,
      "Ġwin": 4439,
      "çļ®": 4440,
      "æĸ¹æ³ķ": 4441,
      "Ġmach": 4442,
      "Ġwords": 4443,
      "èĥľ": 4444,
      "é½": 4445,
      "éĵ¶è¡Į": 4446,
      "ĠAdd": 4447,
      "Ġcomplete": 4448,
      "åºĵ": 4449,
      "iet": 4450,
      "Ġanything": 4451,
      "^{-": 4452,
      "éĢĢ": 4453,
      "Ġeduc": 4454,
      "Ġdemonstr": 4455,
      "Ġwindow": 4456,
      "Ġens": 4457,
      "èĹı": 4458,
      "Ġfall": 4459,
      "Ġdest": 4460,
      "è¡¥": 4461,
      "By": 4462,
      "Ġtrack": 4463,
      "ĠOur": 4464,
      "ä¸ĬçļĦ": 4465,
      "lying": 4466,
      "ronic": 4467,
      "Ġlive": 4468,
      "Ġmut": 4469,
      "bon": 4470,
      "ided": 4471,
      "Ġlines": 4472,
      "Ġdifficult": 4473,
      "ĠOR": 4474,
      "ĠMed": 4475,
      "å·®": 4476,
      "Ġfig": 4477,
      "ä¸įåĲĮ": 4478,
      "Ã³": 4479,
      "Ġinitial": 4480,
      "Ġagre": 4481,
      "äºīéľ¸": 4482,
      "Key": 4483,
      "ae": 4484,
      "ä¸Ģç¯ĩ": 4485,
      "comp": 4486,
      "åº§": 4487,
      "Ġbed": 4488,
      "æĿĢ": 4489,
      "['": 4490,
      "Ġhistory": 4491,
      "Ġconsidered": 4492,
      "ocol": 4493,
      "Ġpositive": 4494,
      "éĢīæĭ©": 4495,
      "Ġgetting": 4496,
      "é¡º": 4497,
      "ĠStates": 4498,
      "Ġrecogn": 4499,
      "Ġund": 4500,
      "Ġassess": 4501,
      "leg": 4502,
      "Ġevents": 4503,
      "è®¾å¤ĩ": 4504,
      "Ġbuy": 4505,
      "è¿°": 4506,
      "åĪĽæĸ°": 4507,
      "äº¿åħĥ": 4508,
      "Ã¼": 4509,
      "åĿĹ": 4510,
      "Ġclean": 4511,
      "print": 4512,
      "ros": 4513,
      "Ġchall": 4514,
      "Ġlikely": 4515,
      "ober": 4516,
      "Ġå½©ç¥ŀ": 4517,
      "ä¼ļè®®": 4518,
      "At": 4519,
      "ä½ľèĢħ": 4520,
      "ĠGener": 4521,
      "æĿ¾": 4522,
      "Ġprocessing": 4523,
      "Ġcorresponding": 4524,
      "How": 4525,
      "éĥ¨éĹ¨": 4526,
      "map": 4527,
      "å´": 4528,
      "Mod": 4529,
      "uments": 4530,
      "æĭ¬": 4531,
      "arning": 4532,
      "En": 4533,
      "à§": 4534,
      "Ġcontext": 4535,
      "Ġfoot": 4536,
      "åŃ¦éĻ¢": 4537,
      "View": 4538,
      "ĠAcc": 4539,
      "sk": 4540,
      "ained": 4541,
      "cher": 4542,
      "xim": 4543,
      "ç¨İ": 4544,
      "ĠNot": 4545,
      "bre": 4546,
      "ersion": 4547,
      "å®ľ": 4548,
      "éĶĻ": 4549,
      "Ġstory": 4550,
      "Ġselected": 4551,
      "èĤ¡ç¥¨": 4552,
      "uth": 4553,
      "Ġcancer": 4554,
      "åĪļ": 4555,
      "Ġimmun": 4556,
      "urope": 4557,
      "ĠPat": 4558,
      "Ġproduction": 4559,
      "Ġseason": 4560,
      "Ġhydro": 4561,
      "Ġmi": 4562,
      "So": 4563,
      "Ġwhite": 4564,
      "å¯¹äºİ": 4565,
      "Ġinside": 4566,
      "ĠPar": 4567,
      "åĢĭ": 4568,
      "Ġconcer": 4569,
      "æĿ¥çļĦ": 4570,
      "Ġdrug": 4571,
      "åľ°åĮº": 4572,
      "å¼Ģåıĳ": 4573,
      "åı¦": 4574,
      "æĬĢå·§": 4575,
      "åĨ²": 4576,
      "De": 4577,
      "Ġveh": 4578,
      "anks": 4579,
      "ç§Ģ": 4580,
      "ender": 4581,
      "Ġmatch": 4582,
      "ä¸Ńå¤®": 4583,
      "Ġq": 4584,
      "Ġscreen": 4585,
      "æĭ¿": 4586,
      "ager": 4587,
      "åıĳçİ°": 4588,
      "Ġcause": 4589,
      "Ġyoung": 4590,
      "Ġmanagement": 4591,
      "å±Ĭ": 4592,
      "Ġaccom": 4593,
      "ç»Ŀ": 4594,
      "Ġthus": 4595,
      "ha": 4596,
      "éĽĦ": 4597,
      "ĠSee": 4598,
      "æĽ°": 4599,
      "Ġexpected": 4600,
      "ç´§": 4601,
      "åŁºæľ¬": 4602,
      "Ġlimited": 4603,
      "fd": 4604,
      "Ġidea": 4605,
      "ites": 4606,
      "Ġoriginal": 4607,
      "å¤§åħ¨": 4608,
      "Ġengine": 4609,
      "éĵ¾": 4610,
      "rown": 4611,
      "æĦ¿": 4612,
      "ĠDo": 4613,
      "isf": 4614,
      "ç¬ĳ": 4615,
      "Ġdoor": 4616,
      "ä¸ļåĬ¡": 4617,
      "Ġnucle": 4618,
      "py": 4619,
      "Ġcomes": 4620,
      "Ġstrateg": 4621,
      "Ġsignificantly": 4622,
      "TY": 4623,
      "Ġdifference": 4624,
      "Ġdistribution": 4625,
      ".)": 4626,
      "æľĿ": 4627,
      "irect": 4628,
      "æ¾³éĹ¨": 4629,
      "TH": 4630,
      "äºĮæīĭ": 4631,
      "come": 4632,
      "ÃŃ": 4633,
      "åºı": 4634,
      "pri": 4635,
      "ç§Ł": 4636,
      "ĠState": 4637,
      "overed": 4638,
      "èĪ¬": 4639,
      "ien": 4640,
      "like": 4641,
      "å³°": 4642,
      "Ġmiss": 4643,
      "å¢ŀéķ¿": 4644,
      "Ġetc": 4645,
      "ogle": 4646,
      "ä¼¤": 4647,
      "Ġfunctions": 4648,
      "å¤ļå°ĳ": 4649,
      "Ġsequence": 4650,
      "ä»Ĭå¹´": 4651,
      "Ġdetermined": 4652,
      "Ġlay": 4653,
      "Ġmole": 4654,
      "ho": 4655,
      "CK": 4656,
      "èµĮéĴ±": 4657,
      "Ġoptions": 4658,
      "Ġnothing": 4659,
      "Ġdevices": 4660,
      "æĶ¿çŃĸ": 4661,
      "arrow": 4662,
      "Ġindu": 4663,
      "call": 4664,
      "more": 4665,
      "Ġphase": 4666,
      "Ġgas": 4667,
      "ä¸½": 4668,
      "éĴ¢": 4669,
      "bib": 4670,
      "Ġmodels": 4671,
      "æ´¥": 4672,
      "Test": 4673,
      "ffffffff": 4674,
      "çİ°éĩĳ": 4675,
      "len": 4676,
      "ios": 4677,
      "uly": 4678,
      "position": 4679,
      "aving": 4680,
      "Ð¾Ð": 4681,
      "error": 4682,
      "è»Ĭ": 4683,
      "public": 4684,
      "ONG": 4685,
      "Ġwebsite": 4686,
      "æĲı": 4687,
      "çģµ": 4688,
      "Ġsix": 4689,
      "åĪ»": 4690,
      "urch": 4691,
      "Ġeconom": 4692,
      "Ġheld": 4693,
      "åįķä½į": 4694,
      "Ġaud": 4695,
      "èµĦéĩĳ": 4696,
      "ervice": 4697,
      "Ġlocation": 4698,
      "æ¿Ģ": 4699,
      "Ġenjoy": 4700,
      "èĦĳ": 4701,
      "Ġstyle": 4702,
      "æ³°": 4703,
      "comes": 4704,
      "Ġperfect": 4705,
      "lim": 4706,
      "Ġtaking": 4707,
      "ouch": 4708,
      "osure": 4709,
      "ä¸ªäºº": 4710,
      "Ġmode": 4711,
      "æľīä¸Ģ": 4712,
      "Ġdraw": 4713,
      "Ġtraining": 4714,
      "dom": 4715,
      "____": 4716,
      "ales": 4717,
      "è¯ī": 4718,
      "IO": 4719,
      "Ġwanted": 4720,
      "æł¹æį®": 4721,
      "unch": 4722,
      "éĲ": 4723,
      "Ġeverything": 4724,
      "Ġcover": 4725,
      "ĠCD": 4726,
      "Ġstay": 4727,
      "ä»Ĭå¤©": 4728,
      "éģĩ": 4729,
      "When": 4730,
      "ummary": 4731,
      "Ġautom": 4732,
      "idge": 4733,
      "Ġbeaut": 4734,
      "èĥĮ": 4735,
      "çŃ¾": 4736,
      "Ġmodule": 4737,
      "amed": 4738,
      "èĳ£": 4739,
      "ensive": 4740,
      "æłĩåĩĨ": 4741,
      "lin": 4742,
      "åĩºçİ°": 4743,
      "case": 4744,
      "Ġtransfer": 4745,
      "Ġeffective": 4746,
      "Ġsus": 4747,
      "éŁ©": 4748,
      "ufact": 4749,
      "She": 4750,
      "Ġ;": 4751,
      "Le": 4752,
      "Ġsum": 4753,
      "Ġwrite": 4754,
      "Ġareas": 4755,
      "åĳ¢": 4756,
      "\"><": 4757,
      "Ġge": 4758,
      "selves": 4759,
      "ä¾Ĩ": 4760,
      "Ġwait": 4761,
      "ĠĠĠĠĠĠĠĠĠĠ": 4762,
      "çŃĳ": 4763,
      "Ġnode": 4764,
      "å¥¥": 4765,
      "Ġ///": 4766,
      "Ġsomeone": 4767,
      "è¿½": 4768,
      "åįĪ": 4769,
      "åĮħæĭ¬": 4770,
      "è®¤ä¸º": 4771,
      "éı": 4772,
      "Ġgrad": 4773,
      "semb": 4774,
      "pack": 4775,
      "Ġespecially": 4776,
      "count": 4777,
      "ĠIntern": 4778,
      "ãĢĤãĢĤ": 4779,
      "la": 4780,
      "Ġvisit": 4781,
      "........": 4782,
      "Ġbelieve": 4783,
      "ĠPol": 4784,
      "down": 4785,
      "è¯¢": 4786,
      "Ġcomponent": 4787,
      "æĸ°éĹ»ç½ĳ": 4788,
      "æ©Ł": 4789,
      "mitted": 4790,
      "Ġactive": 4791,
      "Ġopportun": 4792,
      "å®īåįĵ": 4793,
      "Ġproperties": 4794,
      "Ġrecomm": 4795,
      "Ġtum": 4796,
      "OM": 4797,
      "æĢ¥": 4798,
      "_\\": 4799,
      "Ġmusic": 4800,
      "Ġsample": 4801,
      "èįī": 4802,
      "å¹ħ": 4803,
      "å¾ģ": 4804,
      "ĠString": 4805,
      "Ġdefault": 4806,
      "Ġserver": 4807,
      "Ġtiss": 4808,
      "gment": 4809,
      "Ġ<<": 4810,
      "color": 4811,
      "Ġstorage": 4812,
      "ĠIS": 4813,
      "Time": 4814,
      "Ġpict": 4815,
      "Ġcamp": 4816,
      "ii": 4817,
      "Ġtitle": 4818,
      "oding": 4819,
      "max": 4820,
      "Ġansw": 4821,
      "phi": 4822,
      "CA": 4823,
      "Ġnatural": 4824,
      "ports": 4825,
      "æĭį": 4826,
      "raction": 4827,
      "year": 4828,
      "ç¬¬ä¸ī": 4829,
      "Ġmaintain": 4830,
      "Ġpair": 4831,
      "ĠQu": 4832,
      "é¦ĸé¡µ": 4833,
      "Ġnecessary": 4834,
      "Ġcreated": 4835,
      "åĲ¸": 4836,
      "éĽ·": 4837,
      "æĹ¥æľ¬": 4838,
      "åŃ¸": 4839,
      "Ġmap": 4840,
      "Ġsqu": 4841,
      "èĻ½": 4842,
      "Ġproced": 4843,
      "Ġcomponents": 4844,
      "èĭ¥": 4845,
      "iddle": 4846,
      "Ġissue": 4847,
      "èį£": 4848,
      "Ġoutside": 4849,
      "body": 4850,
      "eks": 4851,
      "æŃ£è§Ħ": 4852,
      "ĠMon": 4853,
      "Ġjud": 4854,
      "Ġproblems": 4855,
      "ader": 4856,
      "å®Ī": 4857,
      "(),": 4858,
      "èĻİ": 4859,
      "umber": 4860,
      "Ġadminist": 4861,
      "ĠYork": 4862,
      "Ġbuilding": 4863,
      "Ġcompris": 4864,
      "Ġaverage": 4865,
      "âĢ¦âĢ¦": 4866,
      "åºĦ": 4867,
      "apter": 4868,
      "NO": 4869,
      "Ġprep": 4870,
      "Ġimpl": 4871,
      "istics": 4872,
      "rt": 4873,
      "ĠGe": 4874,
      "ĠFurther": 4875,
      "Ġsuit": 4876,
      "().": 4877,
      "éĢĻ": 4878,
      "åŁºéĩĳ": 4879,
      "ca": 4880,
      "ç»¿": 4881,
      "Ġlooked": 4882,
      "Ġfactor": 4883,
      "å¤ĩçĶ¨": 4884,
      "æ¹¾": 4885,
      "eta": 4886,
      "ada": 4887,
      "è®¿": 4888,
      "cast": 4889,
      "ula": 4890,
      "etic": 4891,
      "éĻĦ": 4892,
      "éĺħ": 4893,
      "æķĳ": 4894,
      "Ġbehind": 4895,
      "Ġinstead": 4896,
      "å¸ģ": 4897,
      "Class": 4898,
      "Ġword": 4899,
      "Ġfeature": 4900,
      "Ġparameters": 4901,
      "ĠNe": 4902,
      "Ġinflu": 4903,
      "Ġsle": 4904,
      "ĠID": 4905,
      "Ġexact": 4906,
      "è´¨éĩı": 4907,
      "Ġground": 4908,
      "Size": 4909,
      "çİī": 4910,
      "with": 4911,
      "æ±ĩ": 4912,
      "ĠThus": 4913,
      "Ġcontr": 4914,
      "æµľ": 4915,
      "Ġbox": 4916,
      "ĠReg": 4917,
      "çİ°åľº": 4918,
      "Let": 4919,
      "ĠGu": 4920,
      "fs": 4921,
      "è´£ä»»": 4922,
      "ĠÏ": 4923,
      "è¡£": 4924,
      "Exception": 4925,
      "Ġcorrect": 4926,
      "Ġdirectly": 4927,
      "æĺĮ": 4928,
      "unt": 4929,
      "Ġsimply": 4930,
      "ĠComp": 4931,
      "Ġinterface": 4932,
      "Ġimpact": 4933,
      "ĠEurope": 4934,
      "Int": 4935,
      "ibrary": 4936,
      "sy": 4937,
      "Ġapplied": 4938,
      "Ġvalid": 4939,
      "Ġfeed": 4940,
      "Ġcompar": 4941,
      "Ġforward": 4942,
      "å®ĮæĪĲ": 4943,
      "ded": 4944,
      "elling": 4945,
      "åıĳçĶŁ": 4946,
      "é¡»": 4947,
      "äº®": 4948,
      "ken": 4949,
      "åħ³ç³»": 4950,
      "PC": 4951,
      "config": 4952,
      "ç²¾ç¥ŀ": 4953,
      "Not": 4954,
      "Ġbir": 4955,
      "Ġuns": 4956,
      "Ġoil": 4957,
      "Ġdouble": 4958,
      "Ġsound": 4959,
      "éļľ": 4960,
      "tered": 4961,
      "Ġhope": 4962,
      "Ġquite": 4963,
      "è¿Ļä¸Ģ": 4964,
      "ese": 4965,
      "ç»©": 4966,
      "èģļ": 4967,
      "è°Ī": 4968,
      "aled": 4969,
      "ĠIm": 4970,
      "TT": 4971,
      "Ġaspect": 4972,
      "Ġcry": 4973,
      "Ġå°Ĭé¾Ļ": 4974,
      "IA": 4975,
      "æłĳ": 4976,
      "Ġlonger": 4977,
      "Ġshare": 4978,
      "èħ¾": 4979,
      "Ġlanguage": 4980,
      "tings": 4981,
      "Ġhol": 4982,
      "æĹ©é¤ĲåĬłçĽŁ": 4983,
      "æ´¾": 4984,
      "Ġdetermine": 4985,
      "å°ļ": 4986,
      "ĠCor": 4987,
      "Info": 4988,
      "âĸ": 4989,
      "Ġphysical": 4990,
      "Ġaltern": 4991,
      "Ġcenter": 4992,
      "FA": 4993,
      "ĠĠĊ": 4994,
      "ĠGo": 4995,
      "MB": 4996,
      "çĪ¶": 4997,
      "Ġimages": 4998,
      "Ġpredict": 4999,
      "Ġpick": 5000,
      "Ġfactors": 5001,
      "æĪĳçļĦ": 5002,
      "curity": 5003,
      "çľŁéĴ±": 5004,
      "ç»¼": 5005,
      "eter": 5006,
      "Ġax": 5007,
      "Ġbad": 5008,
      "ifier": 5009,
      "Ġdiscl": 5010,
      "Ġreve": 5011,
      "éĶĢåĶ®": 5012,
      "Ġfast": 5013,
      "ocks": 5014,
      "gn": 5015,
      "åĲ«": 5016,
      "ously": 5017,
      "ography": 5018,
      "((": 5019,
      "ners": 5020,
      "ä½³": 5021,
      "åģ¥åº·": 5022,
      "Ġpresence": 5023,
      "Ġknowledge": 5024,
      "åĨ·": 5025,
      "Ġchem": 5026,
      "Ġtax": 5027,
      "Ġtrying": 5028,
      "éİ": 5029,
      "itude": 5030,
      "çĶµå½±": 5031,
      "ç¡Ģ": 5032,
      "Ġsaw": 5033,
      "equ": 5034,
      "æ¯Ľ": 5035,
      "æİĪ": 5036,
      "Ġcompan": 5037,
      "vant": 5038,
      "oo": 5039,
      "Ġdetails": 5040,
      "Ġdriv": 5041,
      "Ġsense": 5042,
      "ana": 5043,
      "Ġlocated": 5044,
      "ĠĠĠĠĠĠĠĠĠĠĠĠ": 5045,
      "vis": 5046,
      "rew": 5047,
      "Ġconnected": 5048,
      "My": 5049,
      "uns": 5050,
      "Ġcommunication": 5051,
      "orks": 5052,
      "ĠMin": 5053,
      "ä½Ľ": 5054,
      "Ġanti": 5055,
      "Ġer": 5056,
      "æľĭ": 5057,
      "Text": 5058,
      "æĮĤ": 5059,
      "ä¼¼": 5060,
      "è½®": 5061,
      "Ġprofess": 5062,
      "Ġcircuit": 5063,
      "bor": 5064,
      "éľ²": 5065,
      "ĠVal": 5066,
      "Ġstra": 5067,
      "ä»ĭç»į": 5068,
      "Ġweb": 5069,
      "Ġevalu": 5070,
      "å©ļ": 5071,
      "quest": 5072,
      "ÂłÂłÂłÂł": 5073,
      "éĮ": 5074,
      "Ġitself": 5075,
      "èīĩ": 5076,
      "Ġgene": 5077,
      "Ġå¼Ģåħĥæ£ĭçīĮ": 5078,
      "Ġconsum": 5079,
      "ä¸ĢæŃ¥": 5080,
      "Def": 5081,
      "Ġä¸ĩ": 5082,
      "Ġspeed": 5083,
      "å¼Ĥ": 5084,
      "Ġconstant": 5085,
      "åŁºç¡Ģ": 5086,
      "\"/>": 5087,
      "åºŃ": 5088,
      "èµļ": 5089,
      "Ġstates": 5090,
      "Ġcam": 5091,
      "Ġ(!": 5092,
      "Ġinvolved": 5093,
      "ĠEd": 5094,
      "sm": 5095,
      "å°ģ": 5096,
      "è°¢": 5097,
      "Ġgreater": 5098,
      "gor": 5099,
      "Ġdate": 5100,
      "Ġmillion": 5101,
      "Ġhor": 5102,
      "Ġprevent": 5103,
      "mathcal": 5104,
      "ĠNational": 5105,
      "length": 5106,
      "Ġshall": 5107,
      "Ġaw": 5108,
      "TER": 5109,
      "Ġpurch": 5110,
      "SC": 5111,
      "äºĨè§£": 5112,
      "oms": 5113,
      "umb": 5114,
      "lambda": 5115,
      "ocation": 5116,
      "beta": 5117,
      "Path": 5118,
      "ĠPer": 5119,
      "Ġtherefore": 5120,
      "Ġanaly": 5121,
      "éĩĳèŀį": 5122,
      "å§Ķåĳĺ": 5123,
      "ä¹ĭåĲİ": 5124,
      "Ġprimary": 5125,
      "Ġquestions": 5126,
      "å¸ĮæľĽ": 5127,
      "Ġwriting": 5128,
      "Ġdiagn": 5129,
      "Ġpret": 5130,
      "ĠAm": 5131,
      "Ġassert": 5132,
      "Ġprobably": 5133,
      "æıĲé«ĺ": 5134,
      "sing": 5135,
      "Or": 5136,
      "Ġheat": 5137,
      "group": 5138,
      "Ġgraph": 5139,
      "èľ": 5140,
      "Ġstatus": 5141,
      "ĠSystem": 5142,
      "uffer": 5143,
      "oke": 5144,
      "Ġmount": 5145,
      "zz": 5146,
      "åĢį": 5147,
      "ç²ī": 5148,
      "Ġissues": 5149,
      "Ġcompl": 5150,
      "æĽ´å¤ļ": 5151,
      "Ġinstance": 5152,
      "cell": 5153,
      "å»¶": 5154,
      "reet": 5155,
      "nb": 5156,
      "unk": 5157,
      "ulf": 5158,
      "åħ¨çĲĥ": 5159,
      "åŁ¹è®Ń": 5160,
      "çĻ¼": 5161,
      "Ġcred": 5162,
      "HO": 5163,
      "mat": 5164,
      "Ġ...": 5165,
      "ĉĉĉĉĉĉ": 5166,
      "typ": 5167,
      "ä¸įä¼ļ": 5168,
      "eps": 5169,
      "Ġstop": 5170,
      "earch": 5171,
      "åĽ½åĨħ": 5172,
      "Ġantib": 5173,
      "å¼Ģå±ķ": 5174,
      "Ġ/**": 5175,
      "inf": 5176,
      "Ġgir": 5177,
      "Ġestim": 5178,
      "Ġsatisf": 5179,
      "Ġrefer": 5180,
      "ĠNULL": 5181,
      "reng": 5182,
      "lib": 5183,
      "Î±": 5184,
      "opyright": 5185,
      "oe": 5186,
      "Ġprec": 5187,
      "ste": 5188,
      "fficient": 5189,
      "Ġfire": 5190,
      "Ġca": 5191,
      "Ġliving": 5192,
      "éģĹ": 5193,
      "-\\": 5194,
      "Ġprice": 5195,
      "Ġwidth": 5196,
      "actions": 5197,
      "ä¸ĢäºĽ": 5198,
      "å½Ĵ": 5199,
      "Ġir": 5200,
      "osph": 5201,
      "èĤī": 5202,
      "Ġclinical": 5203,
      "aves": 5204,
      "æİ§åĪ¶": 5205,
      "åºĶçĶ¨": 5206,
      "Config": 5207,
      "çľŁçļĦ": 5208,
      "gest": 5209,
      "æ¶Īè´¹": 5210,
      "NS": 5211,
      "ulations": 5212,
      "Ġforce": 5213,
      "å¹´çļĦ": 5214,
      "Ġmother": 5215,
      "ä»į": 5216,
      "ises": 5217,
      "CON": 5218,
      "é¢Ĩå¯¼": 5219,
      "éĽ¨": 5220,
      "Ġknew": 5221,
      "ĠãĢĲ": 5222,
      "Ġà¦": 5223,
      "Ġslow": 5224,
      "ç¤¼": 5225,
      "Ġpopulation": 5226,
      "Ġdesigned": 5227,
      "lation": 5228,
      "çĸ«": 5229,
      "Ġ->": 5230,
      "user": 5231,
      "Ġsyn": 5232,
      "Ġunique": 5233,
      "Ġrunning": 5234,
      "Ġconnection": 5235,
      "tes": 5236,
      "Ġmanufact": 5237,
      "ĠPart": 5238,
      "åĲ¯": 5239,
      "Ġappe": 5240,
      "ç»ĥ": 5241,
      "è´Łè´£": 5242,
      "è¿Ľåħ¥": 5243,
      "ä¹¦è®°": 5244,
      "alt": 5245,
      "Ġdeep": 5246,
      "å¤§å°ı": 5247,
      "ĠFl": 5248,
      "Qu": 5249,
      "oken": 5250,
      "from": 5251,
      "PL": 5252,
      "fully": 5253,
      "èĥ½å¤Ł": 5254,
      "Ġtechnology": 5255,
      "inally": 5256,
      "æľīåħ³": 5257,
      "åľ°æĸ¹": 5258,
      "ffer": 5259,
      "æİ¢": 5260,
      "nown": 5261,
      "sum": 5262,
      "çŃĶ": 5263,
      "è¿ĺæľī": 5264,
      "ults": 5265,
      "Ġ$$": 5266,
      "è¿Ļç§į": 5267,
      "çĽĽ": 5268,
      "Ġsn": 5269,
      "ä»¥ä¸Ĭ": 5270,
      "Ġwritten": 5271,
      "Ġdrive": 5272,
      "ĠDep": 5273,
      "Ġreduced": 5274,
      "å¤©æ°Ķ": 5275,
      "åĿĽ": 5276,
      "æĿ¨": 5277,
      "èİ·å¾Ĺ": 5278,
      "fort": 5279,
      "used": 5280,
      "æ¢¦": 5281,
      "Ġturned": 5282,
      "Ġheav": 5283,
      "desc": 5284,
      "âĢ²": 5285,
      "cho": 5286,
      "Ġenh": 5287,
      "Ġparts": 5288,
      "ąĆĈ": 5289,
      "Ġsubstr": 5290,
      "Ġallows": 5291,
      "Ġstri": 5292,
      "ĠSer": 5293,
      "èĨ": 5294,
      "^\\": 5295,
      "Ġtravel": 5296,
      "Ġexperiment": 5297,
      "ĠDr": 5298,
      "Ġ/>": 5299,
      "OO": 5300,
      "Ġhands": 5301,
      "æ¯ķ": 5302,
      "Ġeffort": 5303,
      "äº¤æµģ": 5304,
      "Ġfriends": 5305,
      "Ġreflect": 5306,
      "Ġsoon": 5307,
      "ç§ĳåŃ¦": 5308,
      "èµĽè½¦": 5309,
      "ĠSome": 5310,
      "æ´Ĺ": 5311,
      "éĽ¶": 5312,
      "ä¸Ģå®ļ": 5313,
      "çĿ£": 5314,
      "abled": 5315,
      "uted": 5316,
      "Ġcontinu": 5317,
      "ç§Ĵ": 5318,
      "ĠSim": 5319,
      "Ġdiv": 5320,
      "HU": 5321,
      "çĶ¨æĪ·": 5322,
      "olic": 5323,
      "Ġpull": 5324,
      "CF": 5325,
      "active": 5326,
      "icles": 5327,
      "ä¸įæĸŃ": 5328,
      "è´¸": 5329,
      "Ã¶": 5330,
      "Ġmaterials": 5331,
      "New": 5332,
      "Ġdeveloped": 5333,
      "ned": 5334,
      "ä¸ĢçĽ´": 5335,
      "acing": 5336,
      "lege": 5337,
      "gorith": 5338,
      "Ġclient": 5339,
      "ĠAust": 5340,
      "Ġreceive": 5341,
      "Ġdecl": 5342,
      "çļĦæĹ¶åĢĻ": 5343,
      "ĠCity": 5344,
      "pc": 5345,
      "aches": 5346,
      "Ġvac": 5347,
      "Ġrights": 5348,
      "Ġrandom": 5349,
      "Ġfelt": 5350,
      "Ġbackground": 5351,
      "Ġusually": 5352,
      "ĠJan": 5353,
      "Ġcapt": 5354,
      "è´¦": 5355,
      "Ġrecent": 5356,
      "pen": 5357,
      "æ¡¥": 5358,
      "ä¸Ģèµ·": 5359,
      "Ġskin": 5360,
      "æķ£": 5361,
      "eful": 5362,
      "anch": 5363,
      "Ġdark": 5364,
      "Ġhimself": 5365,
      "do": 5366,
      "erved": 5367,
      "Ġrelease": 5368,
      "ä¿ĥ": 5369,
      "df": 5370,
      "é½Ĳ": 5371,
      "è¿Ļæĺ¯": 5372,
      "That": 5373,
      "Ġ_{\\": 5374,
      "ä»ĸçļĦ": 5375,
      "Ġwatch": 5376,
      "Ġavoid": 5377,
      "Ġcommand": 5378,
      "å¤ĦçĲĨ": 5379,
      "Ġthrow": 5380,
      "ights": 5381,
      "ĠCour": 5382,
      "Ġå¤§åıĳå¿«ä¸ī": 5383,
      "æ¼ı": 5384,
      "';": 5385,
      "$-": 5386,
      "unction": 5387,
      "æĭ¥": 5388,
      "netic": 5389,
      "åĽº": 5390,
      "izes": 5391,
      "ĠDis": 5392,
      "å±ĭ": 5393,
      "Ġimmedi": 5394,
      "chen": 5395,
      "éĽª": 5396,
      "mark": 5397,
      "Ġattack": 5398,
      "pan": 5399,
      "éĤ£ä¹Ī": 5400,
      "tocol": 5401,
      "Ġstore": 5402,
      "Ġwasn": 5403,
      "ĠHere": 5404,
      "æĺ¾ç¤º": 5405,
      "oon": 5406,
      "æĪĸèĢħ": 5407,
      "æĻºèĥ½": 5408,
      "æįŁ": 5409,
      "Ġappropri": 5410,
      "Ġfollowed": 5411,
      "æľĭåıĭ": 5412,
      "éĢı": 5413,
      "aling": 5414,
      "ç»ıèĲ¥": 5415,
      "aur": 5416,
      "script": 5417,
      "Ġability": 5418,
      "Ġadjust": 5419,
      "BU": 5420,
      "Ġvers": 5421,
      "Ġdistance": 5422,
      "ç®±": 5423,
      "Ĥ¬": 5424,
      "ĠAct": 5425,
      "Ġcorrel": 5426,
      "arily": 5427,
      "node": 5428,
      "Ġexpress": 5429,
      "æĹ¶ä»£": 5430,
      "æĬ¥åĳĬ": 5431,
      "Ġcool": 5432,
      "ä¼ĳ": 5433,
      "dered": 5434,
      "çĶµè¯Ŀ": 5435,
      "æ¶¦": 5436,
      "='": 5437,
      "Ġband": 5438,
      "ĠWorld": 5439,
      "ä¸ºäºĨ": 5440,
      "Ġuseful": 5441,
      "ç·": 5442,
      "aching": 5443,
      "åĽ°": 5444,
      "Fl": 5445,
      "ĠHar": 5446,
      "ius": 5447,
      "Ġweeks": 5448,
      "å®īè£ħ": 5449,
      "uel": 5450,
      "Ġroll": 5451,
      "Ġmedical": 5452,
      "ube": 5453,
      "Ġrelative": 5454,
      "sembly": 5455,
      "Ġnames": 5456,
      "Ġarch": 5457,
      "æĪĲåĬŁ": 5458,
      "Ġparty": 5459,
      "ĠSouth": 5460,
      "men": 5461,
      "Ġresid": 5462,
      "Ġchannel": 5463,
      "Ġattempt": 5464,
      "RNA": 5465,
      "Be": 5466,
      "Ġcoupl": 5467,
      "çĸĳ": 5468,
      "Ġregular": 5469,
      "è¼": 5470,
      "/**": 5471,
      "start": 5472,
      "State": 5473,
      "ĠGet": 5474,
      "ĠGerm": 5475,
      "stream": 5476,
      "oma": 5477,
      "DA": 5478,
      "Ġbecame": 5479,
      "Ġseems": 5480,
      "}_": 5481,
      "pat": 5482,
      "Ġ[]": 5483,
      "Ġfib": 5484,
      "abase": 5485,
      "æŀ¶": 5486,
      "Ġfit": 5487,
      "term": 5488,
      "Ġstream": 5489,
      "MT": 5490,
      "ç³»åĪĹ": 5491,
      "è¯ģåĪ¸": 5492,
      "SY": 5493,
      "ç«¥": 5494,
      "IAN": 5495,
      "åľ³": 5496,
      "ä¹İ": 5497,
      "Ġmedium": 5498,
      "miss": 5499,
      "æĹ©çĤ¹åĬłçĽŁ": 5500,
      "ä¸Ńæĸĩ": 5501,
      "è¿ĩç¨ĭ": 5502,
      "och": 5503,
      "Ġtakes": 5504,
      "Index": 5505,
      "Ġcapac": 5506,
      "æĶ¹éĿ©": 5507,
      "From": 5508,
      "ellow": 5509,
      "Ġ\"\"": 5510,
      "åĬŁèĥ½": 5511,
      "å«": 5512,
      "hand": 5513,
      "fil": 5514,
      "æĹĹèĪ°åİħ": 5515,
      "Ġgenerated": 5516,
      "Ġspecies": 5517,
      "illi": 5518,
      "Ġcontinue": 5519,
      "åĵ¥": 5520,
      "ades": 5521,
      "efore": 5522,
      "å»ºçŃĳ": 5523,
      "Ġidentified": 5524,
      "db": 5525,
      "è®¢": 5526,
      "ental": 5527,
      "Ġutil": 5528,
      "Ġcontract": 5529,
      "éĤ®": 5530,
      "çĶµè§Ĩ": 5531,
      "é¡¶": 5532,
      "Ġcoming": 5533,
      "Ġways": 5534,
      "ç¬Ķ": 5535,
      "Ġswitch": 5536,
      "ĠInc": 5537,
      "inate": 5538,
      "ride": 5539,
      "äº¤éĢļ": 5540,
      "Ġson": 5541,
      "ica": 5542,
      "########": 5543,
      "OF": 5544,
      "CS": 5545,
      "ç»§ç»Ń": 5546,
      "Ġleave": 5547,
      "å¼Ģå¥ĸç»ĵæŀľ": 5548,
      "åĲ´": 5549,
      "åħ¨éĿ¢": 5550,
      "Ġusers": 5551,
      "ĠPe": 5552,
      "iful": 5553,
      "åħ³æ³¨": 5554,
      "Ġindustry": 5555,
      "ief": 5556,
      "ç¶²": 5557,
      "è§Ħå®ļ": 5558,
      "aa": 5559,
      "Ġapproxim": 5560,
      "Ġstreng": 5561,
      "è¿Ŀ": 5562,
      "Ġpresented": 5563,
      "change": 5564,
      "ĠChe": 5565,
      "å°Ħ": 5566,
      "è§Ī": 5567,
      "Ġconstruct": 5568,
      "çĶļ": 5569,
      "Ġfrequency": 5570,
      "æıĲåįĩ": 5571,
      "sq": 5572,
      "èĶ": 5573,
      "Ġbegan": 5574,
      "igen": 5575,
      "Ġexcept": 5576,
      "Ġassum": 5577,
      "ATE": 5578,
      "section": 5579,
      "ä¼Ĭ": 5580,
      "Ġdynam": 5581,
      "vey": 5582,
      "dim": 5583,
      "Ġstage": 5584,
      "ĠBo": 5585,
      "å·¨": 5586,
      "lier": 5587,
      "Ġhyp": 5588,
      "Ġgenerally": 5589,
      "Ġlearning": 5590,
      "çľĭåĪ°": 5591,
      "Ġpractice": 5592,
      "Figure": 5593,
      "Ġdecision": 5594,
      "Ġsurv": 5595,
      "ä½įç½®": 5596,
      "spec": 5597,
      "ĠAb": 5598,
      "æĬĹ": 5599,
      "Ġincreasing": 5600,
      "åįĢ": 5601,
      "car": 5602,
      "Ġmetal": 5603,
      "Ġmm": 5604,
      "Ġsort": 5605,
      "åĮ»éĻ¢": 5606,
      "Ġoffice": 5607,
      "ĠMc": 5608,
      "æŃ£åľ¨": 5609,
      "gu": 5610,
      "Ġdu": 5611,
      "Ġparticularly": 5612,
      "board": 5613,
      "block": 5614,
      "Form": 5615,
      "å°ıæĹ¶": 5616,
      "Fr": 5617,
      "ancial": 5618,
      "Ġtim": 5619,
      "tual": 5620,
      "åĹ": 5621,
      "ĠBar": 5622,
      "Ġglobal": 5623,
      "cript": 5624,
      "inst": 5625,
      "ç©¿": 5626,
      "Ġfavor": 5627,
      "ians": 5628,
      "Of": 5629,
      "BA": 5630,
      "GL": 5631,
      "Ġox": 5632,
      "åĺī": 5633,
      "fa": 5634,
      "Ġaccur": 5635,
      "Ġlate": 5636,
      "Ġfem": 5637,
      "hood": 5638,
      "ï¼īï¼Į": 5639,
      "Node": 5640,
      "åı¶": 5641,
      "Ġsecurity": 5642,
      "ĠWhile": 5643,
      "Ġsamples": 5644,
      "è¾Ĩ": 5645,
      "Table": 5646,
      "Ġpk": 5647,
      "è°ģ": 5648,
      "Ġidentify": 5649,
      "ba": 5650,
      "åĭķ": 5651,
      "Ġroad": 5652,
      "æ±ł": 5653,
      "åŃĺåľ¨": 5654,
      "åħ·æľī": 5655,
      "Ġcompanies": 5656,
      "xi": 5657,
      "rief": 5658,
      "èĮ¶": 5659,
      "å·¥ä¸ļ": 5660,
      "ming": 5661,
      "ĠHer": 5662,
      "åĶĲ": 5663,
      "gy": 5664,
      "èīºæľ¯": 5665,
      "icient": 5666,
      "ç»¼åĲĪ": 5667,
      "Ġemail": 5668,
      "æ¯Ķè¾ĥ": 5669,
      "é¡¾": 5670,
      "è§£åĨ³": 5671,
      "Ġphone": 5672,
      "Man": 5673,
      "äºļæ´²": 5674,
      "è«": 5675,
      "PO": 5676,
      "æ¯Ĵ": 5677,
      "rav": 5678,
      "ameter": 5679,
      "illing": 5680,
      "ĠRep": 5681,
      "Ġeasily": 5682,
      "Item": 5683,
      "Ġanim": 5684,
      "è¾ĳ": 5685,
      "pone": 5686,
      "}^{": 5687,
      "ĠAf": 5688,
      "BC": 5689,
      "Ġmulti": 5690,
      "vision": 5691,
      "rier": 5692,
      "iring": 5693,
      "æĿĲæĸĻ": 5694,
      "åķĬ": 5695,
      "ç§ĺ": 5696,
      "clus": 5697,
      "éĽ»": 5698,
      "Ġsche": 5699,
      "ĠPa": 5700,
      "å¡Ķ": 5701,
      "åı«": 5702,
      "Ġliqu": 5703,
      "mpt": 5704,
      "è·ĳ": 5705,
      "åĩºçīĪ": 5706,
      "Ġç¬¬": 5707,
      "Ġplayers": 5708,
      "Ġfiles": 5709,
      "MR": 5710,
      "erve": 5711,
      "å¹¸è¿Ĳ": 5712,
      "Ġbasis": 5713,
      "Ġstress": 5714,
      "Ġwoman": 5715,
      "Â±": 5716,
      "Ġple": 5717,
      "sigma": 5718,
      "Ġintern": 5719,
      "åĪ¤": 5720,
      "Ġlat": 5721,
      "éªĹ": 5722,
      "ĠDes": 5723,
      "itution": 5724,
      "åıĤåĬł": 5725,
      "Ġcontains": 5726,
      "Ġcombination": 5727,
      "Ġbottom": 5728,
      "ä»ª": 5729,
      "Ġvehicle": 5730,
      "Ġago": 5731,
      "çĶ±äºİ": 5732,
      "å¦Ī": 5733,
      "Ġmention": 5734,
      "æ´ĭ": 5735,
      "åĬ³": 5736,
      "}_{": 5737,
      "Ġcand": 5738,
      "inated": 5739,
      "ĠNorth": 5740,
      "è´«": 5741,
      "Ġtherap": 5742,
      "Ñĥ": 5743,
      "æĶ¶åħ¥": 5744,
      "åı¬": 5745,
      "âĢķ": 5746,
      "ĠSm": 5747,
      "ecause": 5748,
      "å¹ķ": 5749,
      "coming": 5750,
      "Ġorg": 5751,
      "å®ŀæĸ½": 5752,
      "æ»ļ": 5753,
      "ospital": 5754,
      "Ġhighly": 5755,
      "æĢĢ": 5756,
      "è¸": 5757,
      "ĠDNA": 5758,
      "Ġbal": 5759,
      "ä¿¡èªī": 5760,
      "Ġplease": 5761,
      "Ġacqu": 5762,
      "ĠGl": 5763,
      "Ġarticle": 5764,
      "Ġsolid": 5765,
      "Ġpublished": 5766,
      "Ġtrial": 5767,
      "base": 5768,
      "éĽħ": 5769,
      "Ġri": 5770,
      "å¸Ŀ": 5771,
      "rupt": 5772,
      "Ġwide": 5773,
      "UE": 5774,
      "TO": 5775,
      "Ad": 5776,
      "Ġadvant": 5777,
      "Ĉąć": 5778,
      "Ġult": 5779,
      "aries": 5780,
      "é£ŀèīĩ": 5781,
      "Ġpolicy": 5782,
      "çĽ´æİ¥": 5783,
      "å¼¹": 5784,
      "èµ·æĿ¥": 5785,
      "èĳ£äºĭ": 5786,
      "ä¿ĿæĬ¤": 5787,
      "Ġpromot": 5788,
      "urance": 5789,
      "Ġfather": 5790,
      "RA": 5791,
      "ĠTherefore": 5792,
      "object": 5793,
      "Ġfixed": 5794,
      "èĢĮä¸Ķ": 5795,
      "BS": 5796,
      "éĶ®": 5797,
      "Ġmeasured": 5798,
      "Ġupper": 5799,
      "true": 5800,
      "Ġherein": 5801,
      "çī¹èī²": 5802,
      "endif": 5803,
      "aker": 5804,
      "Ġgave": 5805,
      ".âĢĻ": 5806,
      "Ġblog": 5807,
      "Ġlarger": 5808,
      "Ġå¤©": 5809,
      "apan": 5810,
      "Ġinternal": 5811,
      "Ġcook": 5812,
      "ements": 5813,
      "æįķ": 5814,
      "çĶ²": 5815,
      "æ¦Ĥ": 5816,
      "Ġleading": 5817,
      "TA": 5818,
      "Ġshape": 5819,
      "ä½ľçĶ¨": 5820,
      "Ġcontaining": 5821,
      "ä»»ä½ķ": 5822,
      "Ġitems": 5823,
      "Ġviol": 5824,
      "ä¸Ŀ": 5825,
      "Ġsaf": 5826,
      "emplate": 5827,
      "atives": 5828,
      "aratus": 5829,
      "Ġratio": 5830,
      "çĳŀ": 5831,
      "Ġrow": 5832,
      "round": 5833,
      "èĩªçĦ¶": 5834,
      "æĿ¯": 5835,
      "Context": 5836,
      "Ġwonder": 5837,
      "Ġnature": 5838,
      "Ġliter": 5839,
      "Ġisn": 5840,
      "urb": 5841,
      "çĮ®": 5842,
      "Ġfollows": 5843,
      "Ġsec": 5844,
      "éĿĻ": 5845,
      "Ġtele": 5846,
      "haps": 5847,
      "ĆĆĈ": 5848,
      "çĪĨ": 5849,
      "ALL": 5850,
      "free": 5851,
      "Ġarrang": 5852,
      "åĿĲ": 5853,
      "Ġbuilt": 5854,
      "æĸ¼": 5855,
      "Ġmobile": 5856,
      "Ġeveryone": 5857,
      "uper": 5858,
      "Ġtheory": 5859,
      "æ¶ī": 5860,
      "ĠAg": 5861,
      "ĠEl": 5862,
      "IX": 5863,
      "ä¸įè¿ĩ": 5864,
      "Ġproduced": 5865,
      "Ġtown": 5866,
      "otic": 5867,
      "Ġchoice": 5868,
      "ä¹Į": 5869,
      "parent": 5870,
      "MO": 5871,
      "é¢ĨåŁŁ": 5872,
      "åºĶè¯¥": 5873,
      "ä½ľåĵģ": 5874,
      "æľªæĿ¥": 5875,
      "Ġthick": 5876,
      "Ġren": 5877,
      "ĠNow": 5878,
      "rial": 5879,
      "ĠAccording": 5880,
      "ĠGeneral": 5881,
      "ama": 5882,
      "rim": 5883,
      "Ġgames": 5884,
      "Ġextra": 5885,
      "èĴĻ": 5886,
      "Ġlost": 5887,
      "iven": 5888,
      "è·Ŀ": 5889,
      "Ġhous": 5890,
      "write": 5891,
      "Ġplant": 5892,
      "Ġmice": 5893,
      "Ġitem": 5894,
      "Ġapplications": 5895,
      "Ġcurrently": 5896,
      "PR": 5897,
      "ĠSince": 5898,
      "place": 5899,
      "dir": 5900,
      "Ġ((": 5901,
      "sup": 5902,
      "Ġedge": 5903,
      "Ġjour": 5904,
      "ĠSch": 5905,
      "Ġproviding": 5906,
      "Ġapparatus": 5907,
      "é²ģ": 5908,
      "ĠWar": 5909,
      "Ġreading": 5910,
      "å¿«éĢŁ": 5911,
      "Ġnews": 5912,
      "å¢ŀåĬł": 5913,
      "GF": 5914,
      "Ġattention": 5915,
      "çĶµçİ©": 5916,
      "Ġwire": 5917,
      "Ġball": 5918,
      "ĠCON": 5919,
      "æıĲçİ°": 5920,
      "æĸĩç«ł": 5921,
      "Ġnegative": 5922,
      "Ġdefine": 5923,
      "eration": 5924,
      "å®¾": 5925,
      "ĠĠĠĠĠĠĠĠĠĠĠĠĠĠĠĠĠĠĠĠĠĠĠĠĠĠĠ": 5926,
      "Ġreaction": 5927,
      "inition": 5928,
      "Ġvoice": 5929,
      "Ġmatrix": 5930,
      "lang": 5931,
      "VER": 5932,
      "Ġrepe": 5933,
      "åĽłæŃ¤": 5934,
      "å®Ĺ": 5935,
      "ä¸Ĭå¸Ĥ": 5936,
      "Ġalthough": 5937,
      "Ġcentral": 5938,
      "ille": 5939,
      "ä¸ĢèĪ¬": 5940,
      "Ġhair": 5941,
      "NU": 5942,
      "urg": 5943,
      "Ġconcept": 5944,
      "Ġpreviously": 5945,
      "ĠSE": 5946,
      "Ġplate": 5947,
      "ĠMr": 5948,
      "ĠåįĹ": 5949,
      "åªĴä½ĵ": 5950,
      "èĽĭ": 5951,
      "Event": 5952,
      "æµª": 5953,
      "istry": 5954,
      "åºĬ": 5955,
      "irit": 5956,
      "FL": 5957,
      "Ġscale": 5958,
      "Ġvolt": 5959,
      "èĻ½çĦ¶": 5960,
      "ILE": 5961,
      "Ġmachine": 5962,
      "Field": 5963,
      "Ġaim": 5964,
      "æ¨¡å¼ı": 5965,
      "SA": 5966,
      "Ġsetting": 5967,
      "pid": 5968,
      "Ġensure": 5969,
      "Ġbehavior": 5970,
      "ĠSw": 5971,
      "åı¥": 5972,
      "uary": 5973,
      "Ġdro": 5974,
      "eline": 5975,
      "èĦ±": 5976,
      "ĠRed": 5977,
      "Ġthroughout": 5978,
      "gamma": 5979,
      "Ġswe": 5980,
      "é£İéĻ©": 5981,
      "CI": 5982,
      "Ġoffers": 5983,
      "Ġvolume": 5984,
      "rote": 5985,
      "æĿŁ": 5986,
      "çĽ®æłĩ": 5987,
      "Ġlack": 5988,
      "æ¤į": 5989,
      "Ġsteps": 5990,
      "DR": 5991,
      "Ġmg": 5992,
      "Ġsubstrate": 5993,
      "èĤĸ": 5994,
      "ague": 5995,
      "Ġtoward": 5996,
      "æľĢåĲİ": 5997,
      "Ġdensity": 5998,
      "é²ľ": 5999,
      "Ġcharge": 6000,
      "éľĢæ±Ĥ": 6001,
      "Ġ+=": 6002,
      "Hand": 6003,
      "ç¼º": 6004,
      "Ġactivities": 6005,
      "Ġvariety": 6006,
      "ĠJust": 6007,
      "Ġbool": 6008,
      "SU": 6009,
      "Ġdegree": 6010,
      "lig": 6011,
      "çĥĪ": 6012,
      "Ġthemselves": 6013,
      "éĸĭ": 6014,
      "aily": 6015,
      "Out": 6016,
      "rec": 6017,
      "encies": 6018,
      "Ġbirth": 6019,
      "ĠSchool": 6020,
      "éĩįåºĨ": 6021,
      "itation": 6022,
      "æ³ī": 6023,
      "ĠBrit": 6024,
      "Ġpurpose": 6025,
      "Ġparameter": 6026,
      "ulate": 6027,
      "omy": 6028,
      "vere": 6029,
      "æĬĵ": 6030,
      "Ġprofessional": 6031,
      "Ġboard": 6032,
      "æľīæķĪ": 6033,
      "ying": 6034,
      "æĸ¹æ¡Ī": 6035,
      "Ġwhose": 6036,
      "ĠCourt": 6037,
      "èģĶç½ĳ": 6038,
      "ĠAug": 6039,
      "æ£®": 6040,
      "hern": 6041,
      "Ġap": 6042,
      "url": 6043,
      "ĠApr": 6044,
      "è¿ĻéĩĮ": 6045,
      "Ġalone": 6046,
      "Dis": 6047,
      "Ġconfiguration": 6048,
      "isms": 6049,
      "çī¹åĪ«": 6050,
      "uge": 6051,
      "ĠPublic": 6052,
      "input": 6053,
      "Ġchoose": 6054,
      "æ´ŀ": 6055,
      "Ġfilter": 6056,
      "Ġnumbers": 6057,
      "Ġåĩ¯æĹ¶": 6058,
      "æİª": 6059,
      "Ġplatform": 6060,
      "source": 6061,
      "Ġincor": 6062,
      "VE": 6063,
      "lo": 6064,
      "å¤ĸåĽ´": 6065,
      "Map": 6066,
      "Ġheight": 6067,
      "Ġbrain": 6068,
      "Ġgives": 6069,
      "Ġtissue": 6070,
      "èĵĿ": 6071,
      "ĠTrans": 6072,
      "åĪĨæĹ¶æĹ¶å½©": 6073,
      "Ġtreated": 6074,
      "èĪŀ": 6075,
      "Ġwrong": 6076,
      "ĠStud": 6077,
      "Ġten": 6078,
      "æŁĵ": 6079,
      "IE": 6080,
      "sim": 6081,
      "ĠåĪĨ": 6082,
      "ĠSet": 6083,
      "Ġtouch": 6084,
      "ilon": 6085,
      "é¥°": 6086,
      "è¯Ĺ": 6087,
      "ĠChar": 6088,
      "ĠMod": 6089,
      "Ġdescription": 6090,
      "ABLE": 6091,
      "ä¼°": 6092,
      "osing": 6093,
      "times": 6094,
      "Ġready": 6095,
      "Ġnote": 6096,
      "Ġstaff": 6097,
      "Ġisol": 6098,
      "Ġappropriate": 6099,
      "md": 6100,
      "éĩİ": 6101,
      "band": 6102,
      "çĽĸ": 6103,
      "Ġanyone": 6104,
      "raz": 6105,
      "clusion": 6106,
      "åĳ¼": 6107,
      "Ġfre": 6108,
      "MD": 6109,
      "Ġphen": 6110,
      "iding": 6111,
      "Ġcollection": 6112,
      "åħ¬åĳĬ": 6113,
      "ä¼´": 6114,
      "ĠFrom": 6115,
      "éº»": 6116,
      "delta": 6117,
      "Ġrates": 6118,
      "èĳ¡": 6119,
      "fection": 6120,
      "rical": 6121,
      "ĠæŀģéĢŁ": 6122,
      "mt": 6123,
      "å»ºç«ĭ": 6124,
      "ĠOct": 6125,
      "itute": 6126,
      "Ġindependent": 6127,
      "ĠFirst": 6128,
      "false": 6129,
      "Ġdistributed": 6130,
      "Ġstation": 6131,
      "Reg": 6132,
      "ĠTH": 6133,
      "Ġformer": 6134,
      "Ġnumer": 6135,
      "Ġglass": 6136,
      "indows": 6137,
      "ä½łçļĦ": 6138,
      "orph": 6139,
      "Ġuses": 6140,
      "Ġtour": 6141,
      "Ġstd": 6142,
      "éĩįçĤ¹": 6143,
      "æĶ¿æ²»": 6144,
      "Ġanswer": 6145,
      "Ġlabel": 6146,
      "éĴĪ": 6147,
      "ï¼İ": 6148,
      "KE": 6149,
      "ç¿»": 6150,
      "Ġsong": 6151,
      "Ð»": 6152,
      "èĪ¹": 6153,
      "ĠII": 6154,
      "ç´¯": 6155,
      "UD": 6156,
      "Ġprop": 6157,
      "airs": 6158,
      "flow": 6159,
      "Ġled": 6160,
      "éģİ": 6161,
      "ĠCO": 6162,
      "Ġcompletely": 6163,
      "Ġfa": 6164,
      "Ġhon": 6165,
      "erson": 6166,
      "éĢĲ": 6167,
      "ĠEm": 6168,
      "Code": 6169,
      "åħ¬éĩĮ": 6170,
      "ĠPres": 6171,
      "SO": 6172,
      "Ġquickly": 6173,
      "æĬ¥éģĵ": 6174,
      "Ġapply": 6175,
      "anger": 6176,
      "Ġround": 6177,
      "âĤ¬": 6178,
      "Ġsites": 6179,
      "sych": 6180,
      "Ġpul": 6181,
      "iques": 6182,
      "ĠNOT": 6183,
      "Ġoptical": 6184,
      "æĤ£": 6185,
      "title": 6186,
      "Ġpopular": 6187,
      "pite": 6188,
      "âĨ": 6189,
      "Ġsubstant": 6190,
      "MM": 6191,
      "ĠNO": 6192,
      "ooth": 6193,
      "èįĲ": 6194,
      "Ġarm": 6195,
      ">>": 6196,
      "æ°´å¹³": 6197,
      "One": 6198,
      "iday": 6199,
      "Ġdownload": 6200,
      "nu": 6201,
      "asons": 6202,
      "æ³¨æĦı": 6203,
      "nbsp": 6204,
      "Ġdog": 6205,
      "Ġmotion": 6206,
      "ąĈ": 6207,
      "ĠST": 6208,
      "rie": 6209,
      "bi": 6210,
      "Ġequal": 6211,
      "oring": 6212,
      "pective": 6213,
      "å®«": 6214,
      "ÃĹ": 6215,
      "Ġpretty": 6216,
      "æħ¢": 6217,
      "Ġsex": 6218,
      "Ġtransport": 6219,
      "éĺħè¯»": 6220,
      "ĠĠĠĠĠĠĠĠĠĠĠĠĠĠ": 6221,
      "Ġtowards": 6222,
      "ocket": 6223,
      "ociety": 6224,
      "ä¸įè¦ģ": 6225,
      "Ġfloor": 6226,
      "Ġones": 6227,
      "lick": 6228,
      "èĭ¦": 6229,
      "Ġbroad": 6230,
      "Ġstim": 6231,
      "ç½ª": 6232,
      "ä¿Ħ": 6233,
      "äºĪ": 6234,
      "è®ºåĿĽ": 6235,
      "ils": 6236,
      "acher": 6237,
      "Over": 6238,
      "********************************": 6239,
      "æ³ķå¾ĭ": 6240,
      "å½¢æĪĲ": 6241,
      "å·ŀå¸Ĥ": 6242,
      "æ´Ľ": 6243,
      "^*": 6244,
      "æĮģç»Ń": 6245,
      "åĢĴ": 6246,
      "cs": 6247,
      "Ġfully": 6248,
      "Ġmaximum": 6249,
      "Ġshowing": 6250,
      "Ġinn": 6251,
      "Ġalgorith": 6252,
      "pol": 6253,
      "Count": 6254,
      "ZH": 6255,
      "çĶµæ¸¸": 6256,
      "Ġforms": 6257,
      "Ġspl": 6258,
      "ĠDef": 6259,
      "ç¦ģ": 6260,
      "ĠAlthough": 6261,
      "SL": 6262,
      "åĩºäºĨ": 6263,
      "Ġsend": 6264,
      "Ġheard": 6265,
      "åıªæľī": 6266,
      "Ġtransform": 6267,
      "Ġrecently": 6268,
      "Ġgenes": 6269,
      "omen": 6270,
      "ham": 6271,
      "alle": 6272,
      "ä»ĵ": 6273,
      "AND": 6274,
      "åį±": 6275,
      "HT": 6276,
      "enty": 6277,
      "ĠAT": 6278,
      "ä¸¤ä¸ª": 6279,
      "æĹ§": 6280,
      "æĮ¥": 6281,
      "æ§": 6282,
      "Ġagçİ¯äºļ": 6283,
      "rad": 6284,
      "Ġyourself": 6285,
      "Ġliquid": 6286,
      "Ġprocesses": 6287,
      "ä¸¹": 6288,
      "Ġvector": 6289,
      "Color": 6290,
      "ifically": 6291,
      "ĠDav": 6292,
      "æľ«": 6293,
      "big": 6294,
      "ocr": 6295,
      "Ġreduce": 6296,
      "Ġallowed": 6297,
      "å¾Į": 6298,
      "exp": 6299,
      "ç§¯æŀģ": 6300,
      "ĠSun": 6301,
      "ancy": 6302,
      "PD": 6303,
      "æ·±åľ³": 6304,
      "pa": 6305,
      "ithub": 6306,
      "rho": 6307,
      "GG": 6308,
      "çŁ¥è¯Ĩ": 6309,
      "default": 6310,
      "][": 6311,
      "agement": 6312,
      "åĬłå¼º": 6313,
      "ĠRec": 6314,
      "apping": 6315,
      "hesis": 6316,
      "WR": 6317,
      "éĺ¶": 6318,
      "itter": 6319,
      "âĶ": 6320,
      "Ġbeautiful": 6321,
      "éħ¸": 6322,
      "æģ©": 6323,
      "Ġchanged": 6324,
      "Ġ~": 6325,
      "Ġrecept": 6326,
      "Ġnational": 6327,
      "åĨ°": 6328,
      "ees": 6329,
      "Ġentry": 6330,
      "ART": 6331,
      "artment": 6332,
      "Ġcarry": 6333,
      "æĳĦ": 6334,
      "èŀįèµĦ": 6335,
      "PI": 6336,
      "ester": 6337,
      "rench": 6338,
      "Ġclosed": 6339,
      "den": 6340,
      "éļĨ": 6341,
      "ä¸Ģæł·": 6342,
      "ĠÎ¼": 6343,
      "åĸľæ¬¢": 6344,
      "PU": 6345,
      "âķ": 6346,
      "eturn": 6347,
      "Ġles": 6348,
      "Ġcore": 6349,
      "Ġtask": 6350,
      "Ġeducation": 6351,
      "Ġmoved": 6352,
      "åĢĳ": 6353,
      "Ġculture": 6354,
      "bug": 6355,
      "äººæīį": 6356,
      "atically": 6357,
      "Ġtried": 6358,
      "Ġkit": 6359,
      "Ġä¸Ń": 6360,
      "è¿Ľä¸ĢæŃ¥": 6361,
      "adem": 6362,
      "Ġextract": 6363,
      "åĪ©çĶ¨": 6364,
      "ipment": 6365,
      "Ġonto": 6366,
      "api": 6367,
      "Ġstar": 6368,
      "odies": 6369,
      "uster": 6370,
      "Ġqual": 6371,
      "ĠĠĠĠĠĠĠĠĠĠĠĠĠĠĠĠĠ": 6372,
      "ĠCounty": 6373,
      "å¿ħé¡»": 6374,
      "ä¹ĭä¸Ģ": 6375,
      "èµĦäº§": 6376,
      "èģĶç³»": 6377,
      "å°į": 6378,
      "Ġdigital": 6379,
      "ĠçĻ¾å®¶ä¹Ĳ": 6380,
      "lt": 6381,
      "Ġemerg": 6382,
      "Ġlinear": 6383,
      "æºª": 6384,
      "Ġworked": 6385,
      "Ġlinks": 6386,
      "bin": 6387,
      "Ġagent": 6388,
      "çļĦå¤§": 6389,
      "Ġresources": 6390,
      "ä¸»ä¹ī": 6391,
      "åĪ¶åº¦": 6392,
      "Ġconcentr": 6393,
      "Ġtypename": 6394,
      "Ġformat": 6395,
      "page": 6396,
      "é¥®": 6397,
      "ĠLa": 6398,
      "è¯º": 6399,
      "è°·": 6400,
      "æİ¨è¿Ľ": 6401,
      "Ġord": 6402,
      "cin": 6403,
      "older": 6404,
      "Ġestablished": 6405,
      "ĠJapan": 6406,
      "Ġsun": 6407,
      "Ġbur": 6408,
      "Ġmid": 6409,
      "works": 6410,
      "ĠMarch": 6411,
      "æľĹ": 6412,
      "æļ´": 6413,
      "ĠRE": 6414,
      "Ġselection": 6415,
      "bum": 6416,
      "ç§ģ": 6417,
      "check": 6418,
      "åŃĻ": 6419,
      "Do": 6420,
      "Inst": 6421,
      "Ed": 6422,
      "ondon": 6423,
      "è¿ª": 6424,
      "ponent": 6425,
      "å±ı": 6426,
      "Ġcustomers": 6427,
      "Ġmanner": 6428,
      "Equ": 6429,
      "eqref": 6430,
      "Ġì": 6431,
      "æĵįä½ľ": 6432,
      "å§Ĳ": 6433,
      "Ġmess": 6434,
      "èĪĩ": 6435,
      "Ġmorning": 6436,
      "æµł": 6437,
      "upport": 6438,
      "ĠPark": 6439,
      "Ġgreen": 6440,
      "src": 6441,
      "ua": 6442,
      "æĺ¯åĲ¦": 6443,
      "çĶĺ": 6444,
      "ĠMark": 6445,
      "known": 6446,
      "æ¢°": 6447,
      "Ġdead": 6448,
      "run": 6449,
      "ç»ĵæŀĦ": 6450,
      "åĪ¶éĢł": 6451,
      "ĠHigh": 6452,
      "ĠYour": 6453,
      "Ġdomain": 6454,
      "Array": 6455,
      "soft": 6456,
      "éĸĵ": 6457,
      "Ġconcentration": 6458,
      "ANT": 6459,
      "Ġupd": 6460,
      "pected": 6461,
      "SR": 6462,
      "ĠWest": 6463,
      "Ġfinancial": 6464,
      "Ġvoltage": 6465,
      "mem": 6466,
      "array": 6467,
      "ishing": 6468,
      "Ġproduce": 6469,
      "Ġdifferences": 6470,
      "ãģ®": 6471,
      "roph": 6472,
      "åıªæĺ¯": 6473,
      "èĥ½æºĲ": 6474,
      "çĨŁ": 6475,
      "å®ŀéĻħ": 6476,
      "Ġneigh": 6477,
      "è¶ħè¿ĩ": 6478,
      "Ġ-->": 6479,
      "Ġsafe": 6480,
      "ny": 6481,
      "ensions": 6482,
      "çŀ": 6483,
      "Ġhar": 6484,
      "Ġsituation": 6485,
      "Ġmoving": 6486,
      "Ġunderstanding": 6487,
      "èĤ¡ä¸ľ": 6488,
      "Request": 6489,
      "ä½ĵèĤ²åľ¨çº¿": 6490,
      "Ġmyself": 6491,
      "ipe": 6492,
      "Att": 6493,
      "ship": 6494,
      "xture": 6495,
      "Ġmer": 6496,
      "level": 6497,
      "æĸ°çļĦ": 6498,
      "åĢº": 6499,
      "åħ±åĲĮ": 6500,
      "di": 6501,
      "Ġterminal": 6502,
      "Ġblue": 6503,
      "ano": 6504,
      "Ġoverall": 6505,
      "çģ¯": 6506,
      "theta": 6507,
      "Ġregions": 6508,
      "ä¸»ä»»": 6509,
      "æ¸¸æĪıå¹³åı°": 6510,
      "style": 6511,
      "ä»·åĢ¼": 6512,
      "Ġdefend": 6513,
      "Ġexhib": 6514,
      "oxy": 6515,
      "Ġindividuals": 6516,
      "grad": 6517,
      "Ġsurpr": 6518,
      "Ġnotice": 6519,
      "inct": 6520,
      "itro": 6521,
      "pret": 6522,
      "Ġmechanism": 6523,
      "Ġhear": 6524,
      "Ġfine": 6525,
      "Ġbuffer": 6526,
      "HA": 6527,
      "Ġcouple": 6528,
      "æ¶²": 6529,
      "Ġstrength": 6530,
      "estern": 6531,
      "è´´": 6532,
      "ä»¥ä¸ĭ": 6533,
      "+\\": 6534,
      "valid": 6535,
      "ä¸Ģæ¬¡": 6536,
      "åľ£": 6537,
      "è¯ļ": 6538,
      "ibly": 6539,
      "ä¼Ł": 6540,
      "Ġsomet": 6541,
      "asm": 6542,
      "result": 6543,
      "enses": 6544,
      "ORT": 6545,
      "Ġinsert": 6546,
      "Ġpolitical": 6547,
      "ç«Ł": 6548,
      "åħ¨éĥ¨": 6549,
      "çı¾": 6550,
      "ä¼łç»Ł": 6551,
      "è¡ĮæĶ¿": 6552,
      "Ġdetection": 6553,
      "æ¯ĶèµĽ": 6554,
      "å¾Ĳ": 6555,
      "æĪĲç«ĭ": 6556,
      "Ġmis": 6557,
      "LA": 6558,
      "æĪĳåĽ½": 6559,
      "ĠAc": 6560,
      "Ġworth": 6561,
      "Ġcomfort": 6562,
      "è¯¦": 6563,
      "Ġdiagram": 6564,
      "ĠAlso": 6565,
      "Ġfields": 6566,
      "oto": 6567,
      "Ġcycl": 6568,
      "ĠApril": 6569,
      "CB": 6570,
      "Trans": 6571,
      "ĠChina": 6572,
      "ĠAustral": 6573,
      "Ġsolutions": 6574,
      "tau": 6575,
      "è´·": 6576,
      "è¡Įä¸º": 6577,
      "ĠEnglish": 6578,
      "çĬ¯": 6579,
      "augh": 6580,
      "ä¼¦": 6581,
      "ync": 6582,
      "INT": 6583,
      "è´¥": 6584,
      "Inter": 6585,
      "Ġenter": 6586,
      "Ġbrought": 6587,
      "SZ": 6588,
      "åĭĻ": 6589,
      "Ġcas": 6590,
      "attle": 6591,
      "Ġhyper": 6592,
      "ilder": 6593,
      "leq": 6594,
      "iled": 6595,
      "æĥĬ": 6596,
      "çľŁå®ŀ": 6597,
      "Ġnovel": 6598,
      "åĬª": 6599,
      "æĪª": 6600,
      "Ġwood": 6601,
      "Ġstarting": 6602,
      "è¾ħ": 6603,
      "çļĦäºĭ": 6604,
      "rep": 6605,
      "Ġreleased": 6606,
      "Ġpow": 6607,
      "Ġsleep": 6608,
      "Ġchalleng": 6609,
      "hest": 6610,
      "host": 6611,
      "æĬĺ": 6612,
      "ĠOther": 6613,
      "åĲĦç§į": 6614,
      "izer": 6615,
      "Ġgoal": 6616,
      "oz": 6617,
      "Ġofficial": 6618,
      "èµµ": 6619,
      "Ġtrust": 6620,
      "åįģåĪĨ": 6621,
      "github": 6622,
      "éĿĴå¹´": 6623,
      "æĿ¡ä»¶": 6624,
      "Ġtempl": 6625,
      "ĠJune": 6626,
      "Ġlock": 6627,
      "ĠAfric": 6628,
      "Ġfat": 6629,
      "Ġformation": 6630,
      "ĠSept": 6631,
      "Ġactual": 6632,
      "Ã¨": 6633,
      "content": 6634,
      "Ġmovement": 6635,
      "Ġvariable": 6636,
      "Ġplaced": 6637,
      "å®ĩ": 6638,
      "After": 6639,
      "olean": 6640,
      "abs": 6641,
      "Ġannoun": 6642,
      "è§ĦåĪĴ": 6643,
      "Ġampl": 6644,
      "çıł": 6645,
      "isions": 6646,
      "ĠTest": 6647,
      "èģĶåĲĪ": 6648,
      "enz": 6649,
      "ç¬¦": 6650,
      "Ġcaused": 6651,
      "è¾¾åĪ°": 6652,
      "Ø§": 6653,
      "Ġsuitable": 6654,
      "oute": 6655,
      "ĠCopyright": 6656,
      "\"]": 6657,
      "ä¿Ŀéļľ": 6658,
      "Ġserious": 6659,
      "ä¸ĵå®¶": 6660,
      "Group": 6661,
      "rum": 6662,
      "Ġmodern": 6663,
      "Ġconv": 6664,
      "Ġadapt": 6665,
      "çĥŁ": 6666,
      "ivery": 6667,
      "itect": 6668,
      "å¾®ä¿¡": 6669,
      "æİ¨èįĲ": 6670,
      "Ġotherwise": 6671,
      "Ġsupply": 6672,
      "å°ıè¯´": 6673,
      "åĩ¤": 6674,
      "Ġtherm": 6675,
      "åħĪçĶŁ": 6676,
      "Ġproteins": 6677,
      "ĠAut": 6678,
      "Ġachieve": 6679,
      "}^": 6680,
      "æĿĤ": 6681,
      "æ½®": 6682,
      "omic": 6683,
      "Ġremov": 6684,
      "Ġpanel": 6685,
      "åĬ±": 6686,
      "Ġsupported": 6687,
      "Ġmonitor": 6688,
      "ara": 6689,
      "Ġcouldn": 6690,
      "Ġrequires": 6691,
      "éĢĶ": 6692,
      "gs": 6693,
      "Ġcritical": 6694,
      "Ser": 6695,
      "PT": 6696,
      "Ġremember": 6697,
      "Ġsave": 6698,
      "label": 6699,
      "ç§ĭ": 6700,
      "last": 6701,
      "ĠAmerica": 6702,
      "ĠOf": 6703,
      "uint": 6704,
      "Ġsmaller": 6705,
      "xx": 6706,
      "Ġcounter": 6707,
      "Ġbasic": 6708,
      "Ġcolumn": 6709,
      "ĠInt": 6710,
      "ç¶ĵ": 6711,
      "ado": 6712,
      "é¢Ħæµĭ": 6713,
      "éľĩ": 6714,
      "iling": 6715,
      "æĹłæ³ķ": 6716,
      "ĠRuss": 6717,
      "Ġlooks": 6718,
      "æī¬": 6719,
      "iciency": 6720,
      "ĠData": 6721,
      "æĲľ": 6722,
      "acement": 6723,
      "Ġsensor": 6724,
      "ĠKing": 6725,
      "ĠEach": 6726,
      "æĪĺçķ¥": 6727,
      "ENG": 6728,
      "assert": 6729,
      "ĠHouse": 6730,
      "Ġslight": 6731,
      "ITY": 6732,
      "Ġbinding": 6733,
      "éŀ": 6734,
      "ĠAND": 6735,
      "Element": 6736,
      "Ġresulting": 6737,
      "Ġparents": 6738,
      "Ġtree": 6739,
      "Ġcountries": 6740,
      "Ġhappy": 6741,
      "aste": 6742,
      "çº¸": 6743,
      "âĢ¢": 6744,
      "Ġmit": 6745,
      "çŁ¿": 6746,
      "åİŁåĽł": 6747,
      "åĬŀåħ¬": 6748,
      "PRO": 6749,
      "Ġhandle": 6750,
      "æµĻ": 6751,
      "åıĤä¸İ": 6752,
      "éĮ¢": 6753,
      "Ġrecommend": 6754,
      "æī©": 6755,
      "ĠArt": 6756,
      "Ã§": 6757,
      "ä¹ĭéĹ´": 6758,
      "æĭ¥æľī": 6759,
      "Ġcoord": 6760,
      "Ġobjects": 6761,
      "ĠEX": 6762,
      "PA": 6763,
      "Ġphosph": 6764,
      "å¿«ä¹Ĳ": 6765,
      "OU": 6766,
      "Ġprogress": 6767,
      "ç¾İåħĥ": 6768,
      "urt": 6769,
      "Ġmedic": 6770,
      "Desc": 6771,
      "Ġcomment": 6772,
      "Ġopportunity": 6773,
      "çĶļèĩ³": 6774,
      "æ¶Īæģ¯": 6775,
      "ford": 6776,
      "Ġcontrast": 6777,
      "ĠTable": 6778,
      "pir": 6779,
      "Ġimag": 6780,
      "FIG": 6781,
      "GR": 6782,
      "Ġspeak": 6783,
      "Ġmix": 6784,
      "Ġfunctional": 6785,
      "çĹĽ": 6786,
      "æ¼«": 6787,
      "èħ¾è®¯": 6788,
      "aught": 6789,
      "Ġsold": 6790,
      "åĶ±": 6791,
      "entially": 6792,
      "æİ¨åĬ¨": 6793,
      "ashing": 6794,
      "yond": 6795,
      "Ġideas": 6796,
      "create": 6797,
      "LC": 6798,
      "ä»ģ": 6799,
      "Ġopening": 6800,
      "long": 6801,
      "Ġdepart": 6802,
      "zed": 6803,
      "ç¡¬": 6804,
      "Up": 6805,
      "king": 6806,
      "Ġpoor": 6807,
      "âĢľãĢĳãĢĲ": 6808,
      "Ġtherapy": 6809,
      "ï¿½ï¿½ï¿½ï¿½ï¿½ï¿½": 6810,
      "æĮīçħ§": 6811,
      "lementary": 6812,
      "Bl": 6813,
      "Ġexactly": 6814,
      "Ġupdate": 6815,
      "Ġrev": 6816,
      "Ġeye": 6817,
      "ulating": 6818,
      "éŃĶ": 6819,
      "æĺ¯ä»Ģä¹Ī": 6820,
      "Ġyield": 6821,
      "è¿·": 6822,
      "Ġrestrict": 6823,
      "ä¹Łä¸į": 6824,
      "current": 6825,
      "Ġring": 6826,
      "Ġclick": 6827,
      "Ġdecided": 6828,
      "Ġshift": 6829,
      "overy": 6830,
      "sg": 6831,
      "Ġfluid": 6832,
      "æī¶": 6833,
      "Ġfeet": 6834,
      "æĢķ": 6835,
      "Ġæīĭæľº": 6836,
      "Ġmagnetic": 6837,
      "ĠSub": 6838,
      "æ±Łèĭı": 6839,
      "eff": 6840,
      "Ġmiddle": 6841,
      "Ġwave": 6842,
      "Ġbank": 6843,
      "è§Ħå¾ĭ": 6844,
      "çĺ": 6845,
      "è®¨": 6846,
      "Ġdamage": 6847,
      "atin": 6848,
      "core": 6849,
      "Ġcandid": 6850,
      "Ġprograms": 6851,
      "aby": 6852,
      "ç©ºéĹ´": 6853,
      "Ġpiece": 6854,
      "Ðº": 6855,
      "reate": 6856,
      "Ġhit": 6857,
      "è±ª": 6858,
      "References": 6859,
      "raint": 6860,
      "argin": 6861,
      "nes": 6862,
      "using": 6863,
      "æ¾¶": 6864,
      "è®¡ç®Ĺ": 6865,
      "Ġreach": 6866,
      "Ġsets": 6867,
      "inner": 6868,
      "Ġ};": 6869,
      "æ¢ħ": 6870,
      "Ġlives": 6871,
      "ĠĠĠĠĊ": 6872,
      "Log": 6873,
      "enge": 6874,
      "åį·": 6875,
      "ĠJanuary": 6876,
      "ytes": 6877,
      "Ġinform": 6878,
      "amin": 6879,
      "Ġimmediately": 6880,
      "buf": 6881,
      "Ġexerc": 6882,
      "èĢģå¸Ī": 6883,
      "Ġremoved": 6884,
      "åĿļæĮģ": 6885,
      "è¹": 6886,
      "åľĪ": 6887,
      "Ġfund": 6888,
      "Ġconstruction": 6889,
      "å¹¿ä¸ľ": 6890,
      "ĆĈą": 6891,
      "Ġproposed": 6892,
      "ptions": 6893,
      "Ġlib": 6894,
      "ãĢĳãĢĲâĢĿ": 6895,
      "Ġclaims": 6896,
      "è¿ĲåĬ¨": 6897,
      "Ġplayed": 6898,
      "Ġcyt": 6899,
      "éĩĬ": 6900,
      "Ġpen": 6901,
      "èĦļ": 6902,
      "æķħäºĭ": 6903,
      "Ġsometimes": 6904,
      "Ġplayer": 6905,
      "Ġplur": 6906,
      "Ġexternal": 6907,
      "Ġpreferably": 6908,
      "ä¿ĿéĻ©": 6909,
      "olar": 6910,
      "Ġmotor": 6911,
      "hold": 6912,
      "å¸®åĬ©": 6913,
      "Ġabsol": 6914,
      "lication": 6915,
      "Ġcat": 6916,
      "Ġsafety": 6917,
      "deed": 6918,
      "Ġvisual": 6919,
      "Ġbeyond": 6920,
      "Ġreturned": 6921,
      "Ġexamples": 6922,
      "itory": 6923,
      "ç½ĳé¡µ": 6924,
      "æĹ¥æĬ¥": 6925,
      "Ġmeaning": 6926,
      "Ġzero": 6927,
      "cember": 6928,
      "Ġdry": 6929,
      "Ġlif": 6930,
      "Ġcustomer": 6931,
      "åĪĨpk": 6932,
      "ico": 6933,
      "cil": 6934,
      "çĶ³è¯·": 6935,
      "ares": 6936,
      "åĨ³å®ļ": 6937,
      "Ġpric": 6938,
      "iers": 6939,
      "Ġstored": 6940,
      "QL": 6941,
      "Ġvan": 6942,
      "Ġsufficient": 6943,
      "åĮ»çĸĹ": 6944,
      "åĲĽ": 6945,
      "»¿": 6946,
      "ä¼Ļ": 6947,
      "ä»¥æĿ¥": 6948,
      "Ġvert": 6949,
      "Ġprepared": 6950,
      "jo": 6951,
      "cf": 6952,
      "Ġtools": 6953,
      "ran": 6954,
      "Ġremove": 6955,
      "Ġsecret": 6956,
      "Ġinteresting": 6957,
      "è´Ŀ": 6958,
      "Ġeight": 6959,
      "Sub": 6960,
      "è¯Ħè®º": 6961,
      "åĤ¨": 6962,
      "âĦ": 6963,
      "Ġincorpor": 6964,
      "ä¹±": 6965,
      "ky": 6966,
      "Ġbooks": 6967,
      "aining": 6968,
      "Ġà¤": 6969,
      "æķĻåŃ¦": 6970,
      "äºĴèģĶç½ĳ": 6971,
      "Ġä¸Ģ": 6972,
      "Ġunits": 6973,
      "Ġstraight": 6974,
      "çİ°ä»£": 6975,
      "å¹²éĥ¨": 6976,
      "å½ĵåīį": 6977,
      "å¼Ł": 6978,
      "ka": 6979,
      "Ġmac": 6980,
      "ï»¿": 6981,
      "Ġfix": 6982,
      "atur": 6983,
      "tot": 6984,
      "æĹ¢": 6985,
      "æľĢé«ĺ": 6986,
      "å§ĵ": 6987,
      "ãĢĳãĢĲâĢľãĢĳãĢĲ": 6988,
      "ĠNet": 6989,
      "æĹ¥æľŁ": 6990,
      "Ġfing": 6991,
      "Ġchance": 6992,
      "å±±ä¸ľ": 6993,
      "EE": 6994,
      "QU": 6995,
      "Ġfinally": 6996,
      "èĤ¥": 6997,
      "å§Ķåĳĺä¼ļ": 6998,
      "MC": 6999,
      "å®¿": 7000,
      "Ġcosts": 7001,
      "\\\"": 7002,
      "Ġthinking": 7003,
      "Ġtechniques": 7004,
      "èİ±": 7005,
      "Ġbecomes": 7006,
      "éª¨": 7007,
      "Ġimm": 7008,
      "çĦ¶åĲİ": 7009,
      "Ġcop": 7010,
      "ĠJuly": 7011,
      "Ġcontribut": 7012,
      "åı°æ¹¾": 7013,
      "itors": 7014,
      "åĽ¾çīĩ": 7015,
      "æĭŁ": 7016,
      "Ġprocedure": 7017,
      "è¿ĳå¹³": 7018,
      "ĠDist": 7019,
      "Ġauth": 7020,
      "éĺ´": 7021,
      "Ġfresh": 7022,
      "ayout": 7023,
      "ĠHol": 7024,
      "////////////////": 7025,
      "Ġcommit": 7026,
      "aign": 7027,
      "Ġstructures": 7028,
      "éĳ": 7029,
      "éĥĳ": 7030,
      "afe": 7031,
      "Ġsto": 7032,
      "ĠLondon": 7033,
      "Ġdatabase": 7034,
      "Ġoperations": 7035,
      "select": 7036,
      "Ġrout": 7037,
      "ederal": 7038,
      "else": 7039,
      "Ġsrc": 7040,
      "Ġlen": 7041,
      "Ġestablish": 7042,
      "Ġexisting": 7043,
      "Ġlas": 7044,
      "ĠInter": 7045,
      "Ġoptim": 7046,
      "Ġcompound": 7047,
      "doc": 7048,
      "Ġpassed": 7049,
      "Ġdetected": 7050,
      "ä¸»å¸Ń": 7051,
      "Ġcarried": 7052,
      "åħ¶å®ŀ": 7053,
      "cel": 7054,
      "Ġindicated": 7055,
      "Ġtransmission": 7056,
      "éĦ": 7057,
      "è¯¯": 7058,
      "Ġfight": 7059,
      "Ġelectric": 7060,
      "AF": 7061,
      "Sec": 7062,
      "Ġdou": 7063,
      "ç°": 7064,
      "cos": 7065,
      "èĥ¡": 7066,
      "èģĮä¸ļ": 7067,
      "Ġearlier": 7068,
      "Ġrule": 7069,
      "\"></": 7070,
      "orem": 7071,
      "Ġcomposition": 7072,
      "Ġsignals": 7073,
      "ĠFeb": 7074,
      "byte": 7075,
      "Ġconfigured": 7076,
      "Ġinternational": 7077,
      "è§Ħæ¨¡": 7078,
      "Ġfair": 7079,
      "å®¶åºŃ": 7080,
      "*/": 7081,
      "Ġcarbon": 7082,
      "Ã£": 7083,
      "frame": 7084,
      "èĻļ": 7085,
      "èĩªåĬ¨": 7086,
      "Ġgoes": 7087,
      "rant": 7088,
      "ĠHealth": 7089,
      "Ġgold": 7090,
      "onic": 7091,
      "ĠCenter": 7092,
      "hy": 7093,
      "Ġtumor": 7094,
      "ĠAD": 7095,
      "Ġsymb": 7096,
      "Ġresistance": 7097,
      "æł¸å¿ĥ": 7098,
      "éģ¿": 7099,
      "è°ĥæŁ¥": 7100,
      "mar": 7101,
      "ĠAugust": 7102,
      "ĠCons": 7103,
      "èĦ¸": 7104,
      "Ġremains": 7105,
      "Ġéĩĳ": 7106,
      "Ġrelevant": 7107,
      "ä¸įåĪ°": 7108,
      "å¾ĹåĪ°": 7109,
      "æ±¡": 7110,
      "Ġmeeting": 7111,
      "tag": 7112,
      "å·¦åı³": 7113,
      "bol": 7114,
      "Ġsubsequ": 7115,
      "ovember": 7116,
      "ĠFound": 7117,
      "undred": 7118,
      "éĶģ": 7119,
      "è¶£": 7120,
      "idden": 7121,
      "éĬĢ": 7122,
      "RL": 7123,
      "Ġseparate": 7124,
      "Ġwherein": 7125,
      "ä½ĵç³»": 7126,
      "æİĮ": 7127,
      "Ġhour": 7128,
      "ä¸Ģä¸ĭ": 7129,
      "Ps": 7130,
      "ĠÂ±": 7131,
      "ä¸ºä»Ģä¹Ī": 7132,
      "å®¢æĪ·ç«¯ä¸ĭè½½": 7133,
      "ä»Ļ": 7134,
      "å¯»": 7135,
      "Ġign": 7136,
      "çīĻ": 7137,
      "Ġpicture": 7138,
      "æĿ¥è¯´": 7139,
      "æ³½": 7140,
      "Ġsources": 7141,
      "ails": 7142,
      "Ġtag": 7143,
      "Ġplurality": 7144,
      "è³ĩ": 7145,
      "ä¸įä»ħ": 7146,
      "Ġcareer": 7147,
      "Ġequipment": 7148,
      "åķĨåĵģ": 7149,
      "Ġflex": 7150,
      "Message": 7151,
      "Ġroot": 7152,
      "Ġgiving": 7153,
      "iform": 7154,
      "Ġrules": 7155,
      "èĲ¨": 7156,
      "é¸¡": 7157,
      "æķĻå¸Ī": 7158,
      "Ġaccord": 7159,
      "reshold": 7160,
      "RT": 7161,
      "åĪĨåĪ«": 7162,
      "æĢĿæĥ³": 7163,
      "Ġoperator": 7164,
      "inder": 7165,
      "ä¹ĭåīį": 7166,
      "åĩ¡": 7167,
      "æıĲåĩº": 7168,
      "åĬªåĬĽ": 7169,
      "åĢŁæ¬¾": 7170,
      "hr": 7171,
      "Ġleaders": 7172,
      "Ġdaily": 7173,
      "ĠSpec": 7174,
      "Our": 7175,
      "infty": 7176,
      "non": 7177,
      "reci": 7178,
      "Ġ}$": 7179,
      "Ġexcell": 7180,
      "å¤§ä¼ļ": 7181,
      "Ġmal": 7182,
      "Ġut": 7183,
      "äººçĶŁ": 7184,
      "åĪ·": 7185,
      "Delta": 7186,
      "XX": 7187,
      "Ġmo": 7188,
      "rome": 7189,
      "They": 7190,
      "gener": 7191,
      "message": 7192,
      "summary": 7193,
      "LI": 7194,
      "Ġwww": 7195,
      "php": 7196,
      "wide": 7197,
      "ç¸º": 7198,
      "Ġsynt": 7199,
      "cp": 7200,
      "names": 7201,
      "ĠSeptember": 7202,
      "é©¾": 7203,
      "ato": 7204,
      "Ent": 7205,
      "open": 7206,
      "çĢ¹": 7207,
      "Ġä¸ī": 7208,
      "orge": 7209,
      "åİļ": 7210,
      "args": 7211,
      "åł´": 7212,
      "icip": 7213,
      "à¥": 7214,
      "oul": 7215,
      "Ġcommerc": 7216,
      "Ġinner": 7217,
      "DL": 7218,
      "åĨľä¸ļ": 7219,
      "rate": 7220,
      "Ġä¸ľ": 7221,
      "Ġsuff": 7222,
      "ä¹łè¿ĳå¹³": 7223,
      "è°ĥæķ´": 7224,
      "å¹´åº¦": 7225,
      "Ġcombined": 7226,
      "ç½²": 7227,
      "status": 7228,
      "Ġsch": 7229,
      "Ġassist": 7230,
      "ĆĆ": 7231,
      "Now": 7232,
      "ç»ıçĲĨ": 7233,
      "umin": 7234,
      "ida": 7235,
      "Ġå¤§åıĳæĹ¶æĹ¶å½©": 7236,
      "rient": 7237,
      "Ġded": 7238,
      "Ġmembr": 7239,
      "format": 7240,
      "Ġexpressed": 7241,
      "ESS": 7242,
      "oses": 7243,
      "Ġ^{": 7244,
      "lient": 7245,
      "Ġpark": 7246,
      "Ġscore": 7247,
      "ftware": 7248,
      "Ġbond": 7249,
      "èĢ³": 7250,
      "OOST": 7251,
      "hi": 7252,
      "èİ«": 7253,
      "æī§è¡Į": 7254,
      "æ¦ľ": 7255,
      "ç»ıéªĮ": 7256,
      "åŃĶ": 7257,
      "\\\\": 7258,
      "çĶŁæĢģ": 7259,
      "Ġplaying": 7260,
      "Ġguide": 7261,
      "Ġvs": 7262,
      "Ġ()": 7263,
      "eria": 7264,
      "Ġsuccessful": 7265,
      "Ġlegal": 7266,
      "çº·": 7267,
      "æľīçļĦ": 7268,
      "Ġfailure": 7269,
      "ĠBro": 7270,
      "Ġfigure": 7271,
      "Ġpsych": 7272,
      "ĠOctober": 7273,
      "Ġregarding": 7274,
      "Ġdiscussed": 7275,
      "èı²": 7276,
      "çİ©æ³ķ": 7277,
      "ady": 7278,
      "Ġdemand": 7279,
      "Comp": 7280,
      "Ġapproximately": 7281,
      "GB": 7282,
      "Ġequival": 7283,
      "èĤ¯": 7284,
      "omega": 7285,
      "æŃ£å¼ı": 7286,
      "Ġchain": 7287,
      "Ġgirl": 7288,
      "faces": 7289,
      "Ġsaying": 7290,
      "Ġcert": 7291,
      "è·¨": 7292,
      "ĠInternational": 7293,
      "ãĢĳãĢĲâĢĿãĢĳãĢĲ": 7294,
      "iance": 7295,
      "éĺµ": 7296,
      "Ġalle": 7297,
      "ĠMus": 7298,
      "ctors": 7299,
      "wood": 7300,
      "ĠâĢ¦": 7301,
      "Ġassembly": 7302,
      "éĻµ": 7303,
      "vec": 7304,
      "æ¥ļ": 7305,
      "des": 7306,
      "æķĪæŀľ": 7307,
      "]^": 7308,
      "Me": 7309,
      "iated": 7310,
      "Ġpix": 7311,
      "Ġbeginning": 7312,
      "Ġsell": 7313,
      "ĠäºļæĲı": 7314,
      "æĿ±": 7315,
      "ERR": 7316,
      "----------------------------------------------------------------": 7317,
      "Rec": 7318,
      "Ġkids": 7319,
      "Ġesc": 7320,
      "ĠDon": 7321,
      "Ġil": 7322,
      "è°±": 7323,
      "åľĨ": 7324,
      "Ġpolice": 7325,
      "ĠEven": 7326,
      "Ġtypically": 7327,
      "è§īå¾Ĺ": 7328,
      "ä¹ĺ": 7329,
      "Ġseemed": 7330,
      "Ġnice": 7331,
      "Ġwild": 7332,
      "ĠAL": 7333,
      "tilde": 7334,
      "]{": 7335,
      "Ġsympt": 7336,
      "eterm": 7337,
      "dr": 7338,
      "æ¾³": 7339,
      "å®½": 7340,
      "æ´ª": 7341,
      "IJ": 7342,
      "æİ¥åıĹ": 7343,
      "åĨ¬": 7344,
      "è¿Ļä¹Ī": 7345,
      "æĪĲæľ¬": 7346,
      "FC": 7347,
      "Ġsi": 7348,
      "ĠMich": 7349,
      "ä¸Ĭä¸Ģç¯ĩ": 7350,
      "Ġreduction": 7351,
      "gery": 7352,
      "}{\\": 7353,
      "çĽĪ": 7354,
      "su": 7355,
      "Ġdesired": 7356,
      "Ġregist": 7357,
      "åħ³éĶ®": 7358,
      "Ġapart": 7359,
      "Ġprepar": 7360,
      "æİī": 7361,
      "roy": 7362,
      "Ġexpand": 7363,
      "Ġconvention": 7364,
      "ructions": 7365,
      "Ġinsp": 7366,
      "é¬": 7367,
      "ATION": 7368,
      "Ġinteraction": 7369,
      "partial": 7370,
      "å¤©åłĤ": 7371,
      "Ġadvantage": 7372,
      "SYS": 7373,
      "ä»»åĬ¡": 7374,
      "æ··": 7375,
      "éļıçĿĢ": 7376,
      "èĮĥåĽ´": 7377,
      "æīįèĥ½": 7378,
      "Ġdelivery": 7379,
      "Ġtesting": 7380,
      "ç¥ĸ": 7381,
      "Ġcc": 7382,
      "Ġfrag": 7383,
      "irt": 7384,
      "ĠDecember": 7385,
      "related": 7386,
      "Ġvirtual": 7387,
      "å¡ŀ": 7388,
      "å»ºè®®": 7389,
      "Ġreached": 7390,
      "äº¡": 7391,
      "Ġhistor": 7392,
      "ĠæĹ¥": 7393,
      "Ġstatement": 7394,
      "Ġoperating": 7395,
      "GA": 7396,
      "Ġauto": 7397,
      "Ġpackage": 7398,
      "Ġpet": 7399,
      "mail": 7400,
      "sd": 7401,
      "Ġwel": 7402,
      "cor": 7403,
      "ilitary": 7404,
      "Ġresource": 7405,
      "Ġindicate": 7406,
      "break": 7407,
      "æĿ¥èĩª": 7408,
      "èµ¶": 7409,
      "iny": 7410,
      "gt": 7411,
      "image": 7412,
      "æľŁéĹ´": 7413,
      "xml": 7414,
      "ĠANY": 7415,
      "åĩºæĿ¥": 7416,
      "ignment": 7417,
      "Ġintr": 7418,
      "Ġwa": 7419,
      "éŁ³ä¹Ĳ": 7420,
      "éĶĭ": 7421,
      "urrent": 7422,
      "Ġsurround": 7423,
      "ductor": 7424,
      "Ġtests": 7425,
      "Ġvict": 7426,
      "Ġbenefits": 7427,
      "Ġefficient": 7428,
      "Ġkept": 7429,
      "Ġ{}": 7430,
      "contain": 7431,
      "Ġargument": 7432,
      "Ġcapacity": 7433,
      "ç¾¤ä¼Ĺ": 7434,
      "olve": 7435,
      "????????": 7436,
      "Ġprinc": 7437,
      "èĢĥè¯ķ": 7438,
      "Ġelectrode": 7439,
      "åĪĽä¸ļ": 7440,
      "Ġplus": 7441,
      "Ġelectronic": 7442,
      "Ġmixture": 7443,
      "Ġessential": 7444,
      "Ġradio": 7445,
      "Ġstru": 7446,
      "Property": 7447,
      "Ġtransl": 7448,
      "Service": 7449,
      "gar": 7450,
      "Ġprofile": 7451,
      "æı¡": 7452,
      "éĿ¢ç§¯": 7453,
      "Ġnamed": 7454,
      "Ġalternative": 7455,
      "æĽ´åĬł": 7456,
      "ifying": 7457,
      "Fil": 7458,
      "pass": 7459,
      "éĩĩçĶ¨": 7460,
      "Ġcatch": 7461,
      "INE": 7462,
      "è±Ĩ": 7463,
      "ĠFree": 7464,
      "win": 7465,
      "ç»ĵåĲĪ": 7466,
      "æħ§": 7467,
      "ĠAir": 7468,
      "æ»ĳ": 7469,
      "å²Ĺ": 7470,
      "å¹¿å·ŀ": 7471,
      "ä¿ĿæĮģ": 7472,
      "build": 7473,
      "Ġfailed": 7474,
      "ĠCalif": 7475,
      "ĠList": 7476,
      "rid": 7477,
      "åĭĩ": 7478,
      "target": 7479,
      "utive": 7480,
      "Ġtraditional": 7481,
      "Ġsales": 7482,
      "ĠUK": 7483,
      "RC": 7484,
      "åıĸå¾Ĺ": 7485,
      "Ġprojects": 7486,
      "Version": 7487,
      "ĠGroup": 7488,
      "ĠDepartment": 7489,
      "space": 7490,
      "ĠSan": 7491,
      "Ġrob": 7492,
      "Ġbrand": 7493,
      "mand": 7494,
      "ä¸Ńåįİ": 7495,
      "Ġskills": 7496,
      "éĬĨ": 7497,
      "Ġeth": 7498,
      "æµĻæ±Ł": 7499,
      "Ġ\"\"\"": 7500,
      "ĠAng": 7501,
      "ACK": 7502,
      "ä¸»é¢ĺ": 7503,
      "olved": 7504,
      "å®£ä¼ł": 7505,
      "Ġprotocol": 7506,
      "ilies": 7507,
      "force": 7508,
      "which": 7509,
      "ĠOff": 7510,
      "è¯Ģ": 7511,
      "Ġamaz": 7512,
      "æ»ļçĲĥ": 7513,
      "FFFFFFFF": 7514,
      "ĠDE": 7515,
      "ĠPresident": 7516,
      "Ġdriver": 7517,
      "æ¬¢è¿İ": 7518,
      "Ġlab": 7519,
      "ç»ıè¿ĩ": 7520,
      "ensional": 7521,
      "Ġrelatively": 7522,
      "Ġpeak": 7523,
      "Ġclients": 7524,
      "oom": 7525,
      "ç¨³å®ļ": 7526,
      "Ġgets": 7527,
      "éĹŃ": 7528,
      "Ġexperiments": 7529,
      "Ġanimals": 7530,
      "Ġalbum": 7531,
      "sor": 7532,
      "resents": 7533,
      "æĮĳ": 7534,
      "æĳ©": 7535,
      "ael": 7536,
      "Ġspread": 7537,
      "Ġfindings": 7538,
      "Ġnorm": 7539,
      "Ġemot": 7540,
      "ĠUSA": 7541,
      "æ°ĳæĹı": 7542,
      "rl": 7543,
      "can": 7544,
      "esh": 7545,
      "åĩĨå¤ĩ": 7546,
      "inte": 7547,
      "å¿ĺ": 7548,
      "ä¸ģ": 7549,
      "ted": 7550,
      "çĭĤ": 7551,
      "mas": 7552,
      "ĠOut": 7553,
      "ĠFurthermore": 7554,
      "Ġgrant": 7555,
      "ĠNote": 7556,
      "{}": 7557,
      "Ġgenerate": 7558,
      "Ġthereof": 7559,
      "åĶ¯": 7560,
      "Ġcircum": 7561,
      "ĠNovember": 7562,
      "Ġwarm": 7563,
      "well": 7564,
      "Ab": 7565,
      "ipp": 7566,
      "Ġwid": 7567,
      "ivil": 7568,
      "Ġreceiving": 7569,
      "éĩįå¤§": 7570,
      "Ġhundred": 7571,
      "ses": 7572,
      "éķ·": 7573,
      "Ġhealthy": 7574,
      "Ġcryst": 7575,
      "éĻ¤äºĨ": 7576,
      "Ġhospital": 7577,
      "æįķé±¼": 7578,
      "zym": 7579,
      "icrosoft": 7580,
      "ÃĲ": 7581,
      "Ġfab": 7582,
      "lebr": 7583,
      "Ġhighest": 7584,
      "æķ¢": 7585,
      "ĠCH": 7586,
      "é¼ĵ": 7587,
      "Ġcold": 7588,
      "è¡¨çİ°": 7589,
      "Ġplaces": 7590,
      "ç»ĵæĿŁ": 7591,
      "Ġdriving": 7592,
      "Ġbud": 7593,
      "è¯¸": 7594,
      "ruit": 7595,
      "Ġinfluence": 7596,
      "post": 7597,
      "é£Łåĵģ": 7598,
      "Ġempt": 7599,
      "çĶ¢": 7600,
      "TC": 7601,
      "Ġcharacteristics": 7602,
      "Ġspecified": 7603,
      "process": 7604,
      "æĸĩä»¶": 7605,
      "Ġcomprises": 7606,
      "Ġneut": 7607,
      "ä¸ĢçĤ¹": 7608,
      "äº§çĶŁ": 7609,
      "ĠFigure": 7610,
      "ponse": 7611,
      "pers": 7612,
      "rees": 7613,
      "EM": 7614,
      "Ġclearly": 7615,
      "template": 7616,
      "è¿Ķ": 7617,
      "Pr": 7618,
      "Ġrevealed": 7619,
      "Call": 7620,
      "END": 7621,
      "ĠBlack": 7622,
      "Ġlip": 7623,
      "å®Įåħ¨": 7624,
      "allel": 7625,
      "ä¼¯": 7626,
      "ĠRem": 7627,
      "Ġabsor": 7628,
      "Ġstrategy": 7629,
      "Â»": 7630,
      "çĤ¹åĩ»": 7631,
      "Che": 7632,
      "Ġencour": 7633,
      "æĪĲäº¤": 7634,
      "Ass": 7635,
      "åĭĴ": 7636,
      "Ġcast": 7637,
      "Ġmir": 7638,
      "æļĸ": 7639,
      "Ġcalculated": 7640,
      "Ġreturns": 7641,
      "Ġnearly": 7642,
      "Ġborder": 7643,
      "æĮĩå¯¼": 7644,
      "ector": 7645,
      "Ġrequirements": 7646,
      "Ġinterval": 7647,
      "Ġopened": 7648,
      "Ġcomparison": 7649,
      "Ġsho": 7650,
      "Ġfloat": 7651,
      "Ġextrem": 7652,
      "Ġä¸ĩåįļ": 7653,
      "å°¤": 7654,
      "Ġspirit": 7655,
      "ruary": 7656,
      "ĠBritish": 7657,
      "ç§¦": 7658,
      "Ġbatter": 7659,
      "Ġrapid": 7660,
      "ĠFe": 7661,
      "ĠIndia": 7662,
      "Ġbul": 7663,
      "Ġgeneration": 7664,
      "graph": 7665,
      "æĲŃ": 7666,
      "Ġtransition": 7667,
      "Ref": 7668,
      "ornia": 7669,
      "é»ŀ": 7670,
      "åħ¼": 7671,
      "Ġpool": 7672,
      "ä¼ĺåĬ¿": 7673,
      "ç¤¾åĮº": 7674,
      "Ġcalc": 7675,
      "Ġinsurance": 7676,
      "Ġfirm": 7677,
      "è¨Ń": 7678,
      "Ġappreci": 7679,
      "TYPE": 7680,
      "Ġprem": 7681,
      "ologies": 7682,
      "è£ģ": 7683,
      "Ġ\"\\": 7684,
      "Ġconver": 7685,
      "Ġwife": 7686,
      "BO": 7687,
      "ĠMoreover": 7688,
      "Ġå®ī": 7689,
      "äººä»¬": 7690,
      "Ġsummer": 7691,
      "Ġchemical": 7692,
      "çľŁæŃ£": 7693,
      "^-": 7694,
      "Ġbenefit": 7695,
      "Ġoppos": 7696,
      "Ġreasons": 7697,
      "Ġgone": 7698,
      "ĠMat": 7699,
      "Ġfeeling": 7700,
      "Ġsett": 7701,
      "æ¢ģ": 7702,
      "éĢłæĪĲ": 7703,
      "jection": 7704,
      "ĠMost": 7705,
      "Ġexists": 7706,
      "Ġorganization": 7707,
      "è§¦": 7708,
      "Ġwind": 7709,
      "æ¸Ĳ": 7710,
      "ERT": 7711,
      "ä¿Ŀè¯ģ": 7712,
      "DO": 7713,
      "rick": 7714,
      "å½»": 7715,
      "åĪ©æ¶¦": 7716,
      "arr": 7717,
      "åĪ¶ä½ľ": 7718,
      "ias": 7719,
      "tee": 7720,
      "Ġcreating": 7721,
      "PK": 7722,
      "Ġcontroller": 7723,
      "Ġing": 7724,
      "é«Ķ": 7725,
      "Ġcru": 7726,
      "atever": 7727,
      "Ġinterview": 7728,
      "aintiff": 7729,
      "Ġappears": 7730,
      "Ġnut": 7731,
      "Ġdoc": 7732,
      "Ġreli": 7733,
      "Ġimproved": 7734,
      "ä¸įåı¯": 7735,
      "Ġcamera": 7736,
      "Ġauthors": 7737,
      "icit": 7738,
      "Image": 7739,
      "ipher": 7740,
      "æľºä¼ļ": 7741,
      "inn": 7742,
      "Ġthreat": 7743,
      "po": 7744,
      "User": 7745,
      "Ġgate": 7746,
      "Ġnoted": 7747,
      "ĠGoogle": 7748,
      "æĦıè§ģ": 7749,
      "æģ¶": 7750,
      "NE": 7751,
      "Ġcontinued": 7752,
      "Ġcomplic": 7753,
      "èĲ½å®ŀ": 7754,
      "actory": 7755,
      "osen": 7756,
      "amber": 7757,
      "ĠçĶµçİ©": 7758,
      "Ġthread": 7759,
      "Ġclub": 7760,
      "éĢ²": 7761,
      "Ġcredit": 7762,
      "åīĳ": 7763,
      "æĸ¹åĲĳ": 7764,
      "Ġrepresents": 7765,
      "produ": 7766,
      "Ġstudent": 7767,
      "åīĤ": 7768,
      "addr": 7769,
      "ç±»åŀĭ": 7770,
      "///": 7771,
      "Ġhop": 7772,
      "Ġhappen": 7773,
      "æģĴ": 7774,
      "Ġfear": 7775,
      "sem": 7776,
      "arter": 7777,
      "Ġé«ĺ": 7778,
      "éĵ¾æİ¥": 7779,
      "é¥Ń": 7780,
      "å¯¦": 7781,
      "èĻĳ": 7782,
      "Ġserve": 7783,
      "è¡ĮåĬ¨": 7784,
      "çŃ¹": 7785,
      "çº¯": 7786,
      "å¾½": 7787,
      "izations": 7788,
      "ĠClass": 7789,
      "æ²ī": 7790,
      "Ġcompleted": 7791,
      "åĮºåŁŁ": 7792,
      "åĴ¨": 7793,
      "çĶµèĦĳ": 7794,
      "ampl": 7795,
      "Ġmort": 7796,
      "çļĦå°ı": 7797,
      "åķĨä¸ļ": 7798,
      "DB": 7799,
      "ror": 7800,
      "åıĺåĮĸ": 7801,
      "Ġresponsible": 7802,
      "aly": 7803,
      "åįģä¸Ģ": 7804,
      "Ġshared": 7805,
      "è®°å½ķ": 7806,
      "Ġhab": 7807,
      "è¡¡": 7808,
      "Ġaccordance": 7809,
      "Ġbutton": 7810,
      "ç¼ĸè¾ĳ": 7811,
      "ĠAssoci": 7812,
      "event": 7813,
      "ASS": 7814,
      "Ġequation": 7815,
      "Ġpreferred": 7816,
      "Ġda": 7817,
      "éĬĢè¡Į": 7818,
      "é¡¿": 7819,
      "Ġobvious": 7820,
      ")))": 7821,
      "çį": 7822,
      "Ġå°ı": 7823,
      "arant": 7824,
      "Ġconsequ": 7825,
      "ä¸¾è¡Į": 7826,
      "Ġtemplate": 7827,
      "Ġmale": 7828,
      "lu": 7829,
      "åĪĢ": 7830,
      "vest": 7831,
      "Ġhappened": 7832,
      "Ġinfection": 7833,
      "åĽĽå·Ŀ": 7834,
      "Ġwish": 7835,
      "ä¸ªæľĪ": 7836,
      "Ġheavy": 7837,
      "Ġinterpret": 7838,
      "ĠPre": 7839,
      "éģŃ": 7840,
      "Ġsmooth": 7841,
      "æĪĳä»¬çļĦ": 7842,
      "Ġsav": 7843,
      "ĠTV": 7844,
      "Ġdiss": 7845,
      "Ġscient": 7846,
      "ä½ĵéªĮ": 7847,
      "Ġfinding": 7848,
      "ĠTechn": 7849,
      "ĠBecause": 7850,
      "ATA": 7851,
      "Ġgrand": 7852,
      "æ´ģ": 7853,
      "æ¡£": 7854,
      "istor": 7855,
      "Ġcatal": 7856,
      "height": 7857,
      "åħ¬å¼Ģ": 7858,
      "Ġalgorithm": 7859,
      "Ġcampaign": 7860,
      "ä¸įå¾Ĺ": 7861,
      "aped": 7862,
      "æĿŃ": 7863,
      "æĺ¯åľ¨": 7864,
      "nav": 7865,
      "åĲĮæ¯Ķ": 7866,
      "Ġnic": 7867,
      "DS": 7868,
      "äºĭä¸ļ": 7869,
      "Stream": 7870,
      "Ġvariables": 7871,
      "Model": 7872,
      "Ġvent": 7873,
      "going": 7874,
      "åıĹåĪ°": 7875,
      "ech": 7876,
      "Ġweak": 7877,
      "Ġbrother": 7878,
      "Ã£o": 7879,
      "model": 7880,
      "åħ·ä½ĵ": 7881,
      "Ġwrote": 7882,
      "Ġagents": 7883,
      "Ġangle": 7884,
      "ĠTra": 7885,
      "SET": 7886,
      "å¹´æĿ¥": 7887,
      "oman": 7888,
      "ĠIL": 7889,
      "overn": 7890,
      "PM": 7891,
      "roller": 7892,
      "Ġsymbol": 7893,
      "Ġè¥¿": 7894,
      "iences": 7895,
      "System": 7896,
      "æľºåħ³": 7897,
      "ä¸ľè¥¿": 7898,
      "æİªæĸ½": 7899,
      "ä¿¡çĶ¨": 7900,
      "ella": 7901,
      "rd": 7902,
      "Line": 7903,
      "Ġgrowing": 7904,
      "çļĦè¯Ŀ": 7905,
      "ifications": 7906,
      "æĦŁè§ī": 7907,
      "oted": 7908,
      "å¹¼": 7909,
      "ćĈ": 7910,
      "ĠSoftware": 7911,
      "Ġlov": 7912,
      "æĻ¶": 7913,
      "acters": 7914,
      "ä¸ĭä¸Ģç¯ĩ": 7915,
      "éĹľ": 7916,
      "Per": 7917,
      "omas": 7918,
      "ĠMag": 7919,
      "Ġlatest": 7920,
      "ãĥ»": 7921,
      "æľīäºº": 7922,
      "range": 7923,
      "phone": 7924,
      "Ġspent": 7925,
      "æĿ°": 7926,
      "igation": 7927,
      "ette": 7928,
      "Ġagreement": 7929,
      "äº¦": 7930,
      "Gener": 7931,
      "Ġpolymer": 7932,
      "inese": 7933,
      "obj": 7934,
      "Ġexcellent": 7935,
      "å°¾": 7936,
      "æ²»çĸĹ": 7937,
      "Ġvill": 7938,
      "æµ£": 7939,
      "Ġincreases": 7940,
      "åį«çĶŁ": 7941,
      "adow": 7942,
      "Ġalk": 7943,
      "================================": 7944,
      "åĬĽéĩı": 7945,
      "Ġopin": 7946,
      "entry": 7947,
      "æīĵéĢł": 7948,
      "çĸ¾": 7949,
      "End": 7950,
      "æļĹ": 7951,
      "Ġreports": 7952,
      "ĠEar": 7953,
      "Ġtend": 7954,
      "Ġstudied": 7955,
      "èĭ±åĽ½": 7956,
      "Ġmaybe": 7957,
      "Ġstock": 7958,
      "mathbf": 7959,
      "Yes": 7960,
      "Ġmentioned": 7961,
      "Ġtrig": 7962,
      "âĹ": 7963,
      "çªĹ": 7964,
      "Ġproceed": 7965,
      "Ġspin": 7966,
      "ĠMor": 7967,
      "ä½įäºİ": 7968,
      "à¦¾": 7969,
      "hu": 7970,
      "Ġplans": 7971,
      "Ġmetab": 7972,
      "å½ĵæĹ¶": 7973,
      "Ġdream": 7974,
      "Ġminimum": 7975,
      "asion": 7976,
      "Ġlibrary": 7977,
      "Ġeconomic": 7978,
      "draw": 7979,
      "local": 7980,
      "ĠFoundation": 7981,
      "FT": 7982,
      "Ġcycle": 7983,
      "next": 7984,
      "Ġperhaps": 7985,
      "èµĮåľº": 7986,
      "Ġnan": 7987,
      "Ġthous": 7988,
      "rend": 7989,
      "Ġteacher": 7990,
      "Ġnor": 7991,
      "that": 7992,
      "connect": 7993,
      "Ġsession": 7994,
      "DC": 7995,
      "æľĢå¤§": 7996,
      "tex": 7997,
      "ributes": 7998,
      "ç¼ĵ": 7999,
      "åıĤèĢĥ": 8000,
      "ĠFIGS": 8001,
      "Ġstuff": 8002,
      "asks": 8003,
      "std": 8004,
      "ĠâĪĴ": 8005,
      "tx": 8006,
      "æĺł": 8007,
      "irmed": 8008,
      "Ġproof": 8009,
      "Ġ===": 8010,
      "ugin": 8011,
      "ĠDay": 8012,
      "EXT": 8013,
      "Ġtal": 8014,
      "Ġje": 8015,
      "otes": 8016,
      "Ġrelig": 8017,
      "çķ¶": 8018,
      "Ġparticles": 8019,
      "ĠEuropean": 8020,
      "ĈąĆą": 8021,
      "Ġoffset": 8022,
      "æĻĵ": 8023,
      "Ġscen": 8024,
      "Ġhuge": 8025,
      "é»ĺ": 8026,
      "æľºæ¢°": 8027,
      "ĠTO": 8028,
      "ï¿½ï¿½ï¿½ï¿½ï¿½ï¿½ï¿½ï¿½": 8029,
      "agon": 8030,
      "çĦ¦": 8031,
      "etry": 8032,
      "æľīäºĽ": 8033,
      "oder": 8034,
      "å®¹æĺĵ": 8035,
      "mathbb": 8036,
      "éĢĴ": 8037,
      "Ġprotection": 8038,
      "Ð°Ð": 8039,
      "poses": 8040,
      "Method": 8041,
      "éļĲ": 8042,
      "åĪº": 8043,
      "Ġaxis": 8044,
      "cules": 8045,
      "Ġnone": 8046,
      "ĠAG": 8047,
      "Ġadministration": 8048,
      "èĭĹ": 8049,
      "Ġspecifically": 8050,
      "Ġinjury": 8051,
      "éĤ¦": 8052,
      "Ġchrom": 8053,
      "annels": 8054,
      "ĠDavid": 8055,
      "stood": 8056,
      "Ġbrow": 8057,
      "edef": 8058,
      "ads": 8059,
      "ĠCalifornia": 8060,
      "bra": 8061,
      "Ġdrop": 8062,
      "ç¹ģ": 8063,
      "ç¹Ŀ": 8064,
      "Ġouter": 8065,
      "å²¸": 8066,
      "ests": 8067,
      "ĠPaul": 8068,
      "$\\": 8069,
      "æī¹åıĳ": 8070,
      "éĨĴ": 8071,
      "ĠMac": 8072,
      "ypes": 8073,
      "${": 8074,
      "è®¾æĸ½": 8075,
      "Ġî": 8076,
      "AGE": 8077,
      "Ġburn": 8078,
      "context": 8079,
      "WA": 8080,
      "Ġrock": 8081,
      "uced": 8082,
      "isher": 8083,
      "ĠExample": 8084,
      "ensor": 8085,
      "çĹĩ": 8086,
      "ading": 8087,
      "Ġclasses": 8088,
      "Ġvirus": 8089,
      "åįıä¼ļ": 8090,
      "property": 8091,
      "Ġcommercial": 8092,
      "Ġspring": 8093,
      "ancing": 8094,
      "opl": 8095,
      "null": 8096,
      "arden": 8097,
      "èĪĴ": 8098,
      "éĵ¶æ²³": 8099,
      "çĤİ": 8100,
      "oded": 8101,
      "æīİ": 8102,
      "fered": 8103,
      "Ġseed": 8104,
      "å¦ĩ": 8105,
      "Ġdied": 8106,
      "åı¬å¼Ģ": 8107,
      "ĠAny": 8108,
      "Ġfill": 8109,
      "Ġcontrols": 8110,
      "ao": 8111,
      "Ġillustrated": 8112,
      "Ġtruth": 8113,
      "éķ¿æľŁ": 8114,
      "ä½łä»¬": 8115,
      "SV": 8116,
      "æĤī": 8117,
      "ialog": 8118,
      "æ¯ķä¸ļ": 8119,
      "anned": 8120,
      "æ£ĢæŁ¥": 8121,
      "Ġbacter": 8122,
      "è´¯": 8123,
      "###": 8124,
      "èµŀ": 8125,
      "Ġintroduced": 8126,
      "æĻĭ": 8127,
      "cdot": 8128,
      "Ġwat": 8129,
      "output": 8130,
      "Ġintended": 8131,
      "Ġjoint": 8132,
      "çĵ¦": 8133,
      "ĠPort": 8134,
      "Ġå¹³": 8135,
      "à¹": 8136,
      "å½ĵåľ°": 8137,
      "ographic": 8138,
      "Ġinstr": 8139,
      "ota": 8140,
      "ĠFrench": 8141,
      "Ġtechnique": 8142,
      "cks": 8143,
      "ctx": 8144,
      "Ġarchitect": 8145,
      "Ġexposure": 8146,
      "option": 8147,
      "asma": 8148,
      "Ġpriv": 8149,
      "asure": 8150,
      "Ġrare": 8151,
      "Ġwouldn": 8152,
      "è´¸æĺĵ": 8153,
      "å®ĺç½ĳä¸ĭè½½": 8154,
      "çĶ¨äºİ": 8155,
      "vari": 8156,
      "æģĲ": 8157,
      "ä¹ĥ": 8158,
      "ç´Ŀ": 8159,
      "greg": 8160,
      "çļĦæĸ°": 8161,
      "Ġrang": 8162,
      "Ġcup": 8163,
      "ĠAR": 8164,
      "æĻ®éĢļ": 8165,
      "Ġmur": 8166,
      "adding": 8167,
      "options": 8168,
      "Ġinterested": 8169,
      "Ġdemonstrated": 8170,
      "ĠForm": 8171,
      "Ġpush": 8172,
      "ario": 8173,
      "Ġmaster": 8174,
      "Ġok": 8175,
      "See": 8176,
      "ĠWilli": 8177,
      "å¼±": 8178,
      "------------": 8179,
      "font": 8180,
      "è´¡": 8181,
      "uman": 8182,
      "Ġserved": 8183,
      "æıĲæ¬¾": 8184,
      "Pos": 8185,
      "Pre": 8186,
      "Ġactivation": 8187,
      "çĸ«æĥħ": 8188,
      "è®¸å¤ļ": 8189,
      "Ġleads": 8190,
      "æı´": 8191,
      "Ġderived": 8192,
      "Ext": 8193,
      "ĠDO": 8194,
      "çİĦ": 8195,
      "å°¼æĸ¯": 8196,
      "å®ĭ": 8197,
      "Ġbath": 8198,
      "inity": 8199,
      "Ġdrink": 8200,
      "Ġgar": 8201,
      "isation": 8202,
      "Act": 8203,
      "Ġconsistent": 8204,
      "æĿ©": 8205,
      "amily": 8206,
      "icians": 8207,
      "za": 8208,
      "Ġactions": 8209,
      "æķ¬": 8210,
      "nel": 8211,
      "Ġempty": 8212,
      "Ġapparent": 8213,
      "Ġimplementation": 8214,
      "åĨľæĿĳ": 8215,
      "ingu": 8216,
      "rypt": 8217,
      "Acc": 8218,
      "å¯¼èĩ´": 8219,
      "IZE": 8220,
      "ä¾ĽåºĶ": 8221,
      "Ġdelay": 8222,
      "å¼ĢæĶ¾": 8223,
      "æ¬²": 8224,
      "Ġcit": 8225,
      "msgid": 8226,
      "ĠFebruary": 8227,
      "Ġandroid": 8228,
      "Ġparticipants": 8229,
      "ĠTw": 8230,
      "ĠJes": 8231,
      "å¦ĤæŃ¤": 8232,
      "Ġderiv": 8233,
      "ĠRef": 8234,
      "Ġhousing": 8235,
      "del": 8236,
      "èµļéĴ±": 8237,
      "ĠEvery": 8238,
      "Ġborn": 8239,
      "è´Ńä¹°": 8240,
      "msgstr": 8241,
      "ä¼ĺç§Ģ": 8242,
      "va": 8243,
      "ç«¹": 8244,
      "Ġfamilies": 8245,
      "è¿ĩåİ»": 8246,
      "Ġbow": 8247,
      "è¿ĲèĲ¥": 8248,
      "å¡ĳ": 8249,
      "ï¼īãĢĤ": 8250,
      "åľ°äº§": 8251,
      "img": 8252,
      "Ġpatterns": 8253,
      "Ġcompounds": 8254,
      "åħ§": 8255,
      "ipped": 8256,
      "has": 8257,
      "ini": 8258,
      "Sp": 8259,
      "WN": 8260,
      "icks": 8261,
      "çł´è§£": 8262,
      "å±ŀäºİ": 8263,
      "Ġconducted": 8264,
      "Ġtempor": 8265,
      ",,": 8266,
      "Ġletter": 8267,
      "client": 8268,
      "Ġmolecular": 8269,
      "ç¨ĭåºı": 8270,
      "sqrt": 8271,
      "ä¸įå°ĳ": 8272,
      "Ã¥": 8273,
      "æĽ¹": 8274,
      "åĪĨäº«": 8275,
      "åĳĬè¯ī": 8276,
      "Ġbone": 8277,
      "match": 8278,
      "æīĳ": 8279,
      "Ġ&=": 8280,
      "Ġexception": 8281,
      "Ġpaid": 8282,
      "erate": 8283,
      "ĠService": 8284,
      "house": 8285,
      "VA": 8286,
      "Ġcentury": 8287,
      "Ġenzym": 8288,
      "ĠKe": 8289,
      "LS": 8290,
      "iced": 8291,
      "ĠLaw": 8292,
      "ARR": 8293,
      "urity": 8294,
      "thon": 8295,
      "===": 8296,
      "iler": 8297,
      "çī©æµģ": 8298,
      "èªª": 8299,
      "Ġhttps": 8300,
      "ąą": 8301,
      "å¤§åıĳå¿«ä¸ī": 8302,
      "âĢĥ": 8303,
      "Î¼": 8304,
      "è¾½": 8305,
      "åĵªéĩĮ": 8306,
      "omb": 8307,
      "package": 8308,
      "ĠResearch": 8309,
      "arp": 8310,
      "åĴ¨è¯¢": 8311,
      "è¯Ĭ": 8312,
      "itis": 8313,
      "amine": 8314,
      "å¯¼èĪª": 8315,
      "Ġpurchase": 8316,
      "ĠOver": 8317,
      "Ġguid": 8318,
      "Ġthreshold": 8319,
      "java": 8320,
      "å¯¸": 8321,
      "Ġscope": 8322,
      "ç¼©": 8323,
      "è·µ": 8324,
      "ometry": 8325,
      "æĬķèµĦèĢħ": 8326,
      "ĠSuch": 8327,
      "Ġcelebr": 8328,
      "å®īåįĵçīĪ": 8329,
      "ĠNone": 8330,
      "Ġï¼Ī": 8331,
      "Bu": 8332,
      "^+": 8333,
      "åĪ©çİĩ": 8334,
      "ĠĠĠĠĠĠĠĠĠĠĠĠĠĠĠĠĠĠĠĠĠ": 8335,
      "æķ°åŃĹ": 8336,
      "Aut": 8337,
      "imer": 8338,
      "Ġseven": 8339,
      "Ġdefinition": 8340,
      "%%": 8341,
      "è¿Ļæł·çļĦ": 8342,
      "ĠPlease": 8343,
      "Ġflat": 8344,
      "kg": 8345,
      "ç®Ģåįķ": 8346,
      "zen": 8347,
      "åģļå¥½": 8348,
      "Ġpal": 8349,
      "Ġbreath": 8350,
      "ea": 8351,
      "Ġkitchen": 8352,
      "çħ¤": 8353,
      "ocy": 8354,
      "æ²Ł": 8355,
      "Ġcovered": 8356,
      "ç±į": 8357,
      "adata": 8358,
      "äºļæ¸¸": 8359,
      "Base": 8360,
      "Ġplanning": 8361,
      "DM": 8362,
      "^[@": 8363,
      "json": 8364,
      "åģı": 8365,
      "Source": 8366,
      "ç³ĸ": 8367,
      "CM": 8368,
      "ç¨¿": 8369,
      "ä¿ĥè¿Ľ": 8370,
      "initely": 8371,
      "Ġsecondary": 8372,
      "ĠBOOST": 8373,
      "Ġvel": 8374,
      "Ġconvers": 8375,
      "aughter": 8376,
      "ĠDem": 8377,
      "ĠIndian": 8378,
      "coh": 8379,
      "inet": 8380,
      "hentic": 8381,
      "Ġcaref": 8382,
      "hens": 8383,
      "ville": 8384,
      "åĿı": 8385,
      "Ġtrade": 8386,
      "Ne": 8387,
      "Ġtrain": 8388,
      "Ġexpert": 8389,
      "æ²³åįĹ": 8390,
      "å¥ĭ": 8391,
      "åĥ¹": 8392,
      "FO": 8393,
      "Ġcollected": 8394,
      "åĬĽçļĦ": 8395,
      "Ġshot": 8396,
      "Ġmeant": 8397,
      "çĶŁçī©": 8398,
      "Ġcomprising": 8399,
      "æľĢç»Ī": 8400,
      "GU": 8401,
      "ç´«": 8402,
      "aud": 8403,
      "ban": 8404,
      "Ġsitu": 8405,
      "æ²³åĮĹ": 8406,
      "Ġnoise": 8407,
      "ĠJack": 8408,
      "ç«ŀäºī": 8409,
      "Ġlaug": 8410,
      "pg": 8411,
      "æİĴåĲį": 8412,
      "åĩºçļĦ": 8413,
      "scale": 8414,
      "Ġunc": 8415,
      "Ġsurgery": 8416,
      "Ġcapital": 8417,
      "åĽ¢éĺŁ": 8418,
      "vol": 8419,
      "ç§»åĬ¨": 8420,
      "Ġremaining": 8421,
      "Status": 8422,
      "Ġjoin": 8423,
      "Ġpresident": 8424,
      "Ġexempl": 8425,
      "Ġoffered": 8426,
      "hydro": 8427,
      "Ġconvert": 8428,
      "ascular": 8429,
      "rael": 8430,
      "åĲķ": 8431,
      "ĠSU": 8432,
      "VAL": 8433,
      "cription": 8434,
      "olf": 8435,
      "Ġeat": 8436,
      "Ġtalking": 8437,
      "Ġï¿½": 8438,
      "defined": 8439,
      "å¤©å¤©æ°Ķ": 8440,
      "ĠãĢĳãĢĲ": 8441,
      "à§ĩ": 8442,
      "ĠãĢĢãĢĢ": 8443,
      "float": 8444,
      "Start": 8445,
      "Î²": 8446,
      "çĸĨ": 8447,
      "Ġcompr": 8448,
      "éģį": 8449,
      "Ġolder": 8450,
      "Ġuintptr": 8451,
      "ĠStreet": 8452,
      "han": 8453,
      "å½©ç¥ŀäºīéľ¸": 8454,
      "Ġrank": 8455,
      "STR": 8456,
      "Ġprotected": 8457,
      "Ġslightly": 8458,
      "reme": 8459,
      "SN": 8460,
      "åıĳè¡¨": 8461,
      "çĽĳçĿ£": 8462,
      "å¤©æ´¥": 8463,
      "çĻ»åħ¥": 8464,
      "CTION": 8465,
      "det": 8466,
      "Ġdeliver": 8467,
      "çĶŁåĳ½": 8468,
      "Ġstack": 8469,
      "FE": 8470,
      "ĠWIT": 8471,
      "ĠAre": 8472,
      "Ġmeasurement": 8473,
      "Ġrelation": 8474,
      "æľ±": 8475,
      "Ġchallenge": 8476,
      "Ġunderstood": 8477,
      "asis": 8478,
      "èĤĥ": 8479,
      "IY": 8480,
      "first": 8481,
      "âĢĲ": 8482,
      "æ°ı": 8483,
      "lies": 8484,
      "Ġpor": 8485,
      "dt": 8486,
      "Ġcharacters": 8487,
      "aming": 8488,
      "Ġæ·": 8489,
      "psi": 8490,
      "Ġplants": 8491,
      "åĵ¡": 8492,
      "ĠCam": 8493,
      "Ġæ¾³éĹ¨çĻ¾å®¶": 8494,
      "Ġaspects": 8495,
      "Ġsuggested": 8496,
      "åĬŀæ³ķ": 8497,
      "éļĶ": 8498,
      "Ġbrief": 8499,
      "çĽĲ": 8500,
      "ä¸¥éĩį": 8501,
      "ç»´ä¿®": 8502,
      "ĠPal": 8503,
      "å©Ĩ": 8504,
      "Ġdisapp": 8505,
      "]]": 8506,
      "å¹¿åĳĬ": 8507,
      "ĠÃł": 8508,
      "ĠPD": 8509,
      "Ġgly": 8510,
      "Ġmouth": 8511,
      "ĠCommun": 8512,
      "Ġhus": 8513,
      "å¢¨": 8514,
      "ĠEast": 8515,
      "ĠFOR": 8516,
      "method": 8517,
      "othing": 8518,
      "child": 8519,
      "Ġraised": 8520,
      "å¤ĩçĶ¨ç½ĳåĿĢ": 8521,
      "attr": 8522,
      "Ġcertainly": 8523,
      "lem": 8524,
      "actor": 8525,
      "éĤ£äºĽ": 8526,
      "Manager": 8527,
      "CG": 8528,
      "Po": 8529,
      "look": 8530,
      "istory": 8531,
      "éĢļçŁ¥": 8532,
      "module": 8533,
      "Ġaward": 8534,
      "æĽ´æĸ°": 8535,
      "Ġdistinct": 8536,
      "under": 8537,
      "Ġmagn": 8538,
      "æıĴ": 8539,
      "åģ¿": 8540,
      "Ġplane": 8541,
      "Ġfootball": 8542,
      "&#": 8543,
      "Ġthank": 8544,
      "Ġbelong": 8545,
      "åıªè¦ģ": 8546,
      "çĩĥ": 8547,
      "Ġ}\\": 8548,
      "æľ¬æ¬¡": 8549,
      "Ġamazing": 8550,
      "å¾Ħ": 8551,
      "Ġreferred": 8552,
      "çļĦé«ĺ": 8553,
      "Ġphotos": 8554,
      "Ġjava": 8555,
      "æĮ¯": 8556,
      "è°ĵ": 8557,
      "åıĳè¡Į": 8558,
      "ï¼īãĢģ": 8559,
      "æĸĩæĺİ": 8560,
      "Ġdetailed": 8561,
      "Ġelectron": 8562,
      "ria": 8563,
      "éķľ": 8564,
      "itz": 8565,
      "æ·±åħ¥": 8566,
      "Ġpages": 8567,
      "è·³": 8568,
      "Oh": 8569,
      "Ġinstructions": 8570,
      "ä¸ľæĸ¹": 8571,
      "Ġ_\\": 8572,
      "ĠæĿ¥æºĲ": 8573,
      "Ġlayers": 8574,
      "Ġdivid": 8575,
      "ĠÃ©": 8576,
      "åİ»å¹´": 8577,
      "Ġkid": 8578,
      "encing": 8579,
      "ĉĉĉĉĉĉĉĉ": 8580,
      "png": 8581,
      "çĲĨè®º": 8582,
      "rive": 8583,
      "è¯´æĺİ": 8584,
      "Ġlabor": 8585,
      "zon": 8586,
      "Î¿": 8587,
      "ansion": 8588,
      "è¶ĭ": 8589,
      "cons": 8590,
      "æĽ¼": 8591,
      "æĺİæĺ¾": 8592,
      "Ġmilitary": 8593,
      "é¡į": 8594,
      "Ġmembrane": 8595,
      "ĠÎ±": 8596,
      "rip": 8597,
      "æĬ¢": 8598,
      "apache": 8599,
      "Ġdescribe": 8600,
      "web": 8601,
      "Ġrecorded": 8602,
      "Ġscan": 8603,
      "æ¯ıå¤©": 8604,
      "èļ": 8605,
      "Input": 8606,
      "ĠRNA": 8607,
      "Ġdepth": 8608,
      "mult": 8609,
      "æ¯ĶåĪĨ": 8610,
      "Ġlargest": 8611,
      "offset": 8612,
      "uid": 8613,
      "Off": 8614,
      "äºķ": 8615,
      "Ġtub": 8616,
      "ais": 8617,
      "hal": 8618,
      "ords": 8619,
      "Ġcauses": 8620,
      "æ¡ĥ": 8621,
      "lands": 8622,
      "Ġboy": 8623,
      "mega": 8624,
      "ilk": 8625,
      "Ġmodified": 8626,
      "ĠMA": 8627,
      "Ġ..": 8628,
      "PH": 8629,
      "æĺ¯ä¸Ģä¸ª": 8630,
      "osc": 8631,
      "Ġsust": 8632,
      "éĤĦ": 8633,
      "Ġtested": 8634,
      "Ġmanufacture": 8635,
      "Ġsevere": 8636,
      "Hz": 8637,
      "Ġfemale": 8638,
      "åĵªäºĽ": 8639,
      "ULT": 8640,
      "Ġgain": 8641,
      "mode": 8642,
      "Ġmeasures": 8643,
      "Ġcardi": 8644,
      "ĠSection": 8645,
      "Ġloop": 8646,
      "inations": 8647,
      "itivity": 8648,
      "illa": 8649,
      "Ġåľ¨": 8650,
      "å¨±ä¹Ĳåľº": 8651,
      "rape": 8652,
      "antly": 8653,
      "èĥİ": 8654,
      "ĠSk": 8655,
      "Ġimaging": 8656,
      "cap": 8657,
      "ĠDi": 8658,
      "ilos": 8659,
      "crete": 8660,
      "åĲ¨": 8661,
      "çļĦéĹ®é¢ĺ": 8662,
      "å¢Ļ": 8663,
      "Ġgal": 8664,
      "angle": 8665,
      "åľŁåľ°": 8666,
      "Ġconventional": 8667,
      "Point": 8668,
      "Ġerrors": 8669,
      "Ġanimal": 8670,
      "äºĭä»¶": 8671,
      "Ġattract": 8672,
      "Ġpy": 8673,
      "stract": 8674,
      "ç¼ĺ": 8675,
      "Ġregister": 8676,
      "Ġtick": 8677,
      "Ġmajority": 8678,
      "æµ¦": 8679,
      "Ġinduced": 8680,
      "èµĦæľ¬": 8681,
      "Ġspot": 8682,
      "chi": 8683,
      "éĺ¶æ®µ": 8684,
      "icity": 8685,
      "ç®Ģä»ĭ": 8686,
      "Ġheter": 8687,
      "ĠWeb": 8688,
      "Ġtun": 8689,
      "éī": 8690,
      "Ġagreed": 8691,
      "Ñı": 8692,
      "ienced": 8693,
      "ya": 8694,
      "ashion": 8695,
      "Ġbeg": 8696,
      "ĠUse": 8697,
      "éĹ²": 8698,
      "abilities": 8699,
      "Ġcalls": 8700,
      "Ġlicense": 8701,
      "ellig": 8702,
      "usiness": 8703,
      "ĠåĮĹäº¬pk": 8704,
      "Ġsymptoms": 8705,
      "Supp": 8706,
      "Client": 8707,
      "Ġarriv": 8708,
      "ĠåĪ©æĿ¥w": 8709,
      "ĠTwo": 8710,
      "ç½Ĺæĸ¯": 8711,
      "Ġanalys": 8712,
      "è¿ħ": 8713,
      "é©»": 8714,
      "Ġsale": 8715,
      "Ġbeat": 8716,
      "Ġë": 8717,
      "å¼ĥ": 8718,
      "ĠMal": 8719,
      "Ġfabric": 8720,
      "ashington": 8721,
      "Ġoccup": 8722,
      "query": 8723,
      "è¤": 8724,
      "Ġhelps": 8725,
      "é¢ľ": 8726,
      "Ġviews": 8727,
      "Ġchurch": 8728,
      "Â®": 8729,
      "ffffffffffffffff": 8730,
      "Ġwhereas": 8731,
      "çĪ¸": 8732,
      "å½¢å¼ı": 8733,
      "åĢŁéĮ¢": 8734,
      "Ġadvert": 8735,
      "æ²¿": 8736,
      "cles": 8737,
      "phen": 8738,
      "ĠWhite": 8739,
      "Ġsheet": 8740,
      "ushed": 8741,
      "WE": 8742,
      "Ġexercise": 8743,
      "Ġenable": 8744,
      "Co": 8745,
      "ä»ĬæĹ¥": 8746,
      "Can": 8747,
      "ĠCA": 8748,
      "request": 8749,
      "åĲİçļĦ": 8750,
      "cluded": 8751,
      "Ġbright": 8752,
      "Ġdose": 8753,
      "å¯¿": 8754,
      "çĥ§": 8755,
      "çłĶåıĳ": 8756,
      "orter": 8757,
      "Ġ::": 8758,
      "ĠHot": 8759,
      "opic": 8760,
      "CU": 8761,
      "ä¸ĭçļĦ": 8762,
      "weight": 8763,
      "Ġattached": 8764,
      "normal": 8765,
      "è·Ŀç¦»": 8766,
      "ĠMet": 8767,
      "Ġphoto": 8768,
      "ä¼ĺæĥł": 8769,
      "Ġrace": 8770,
      "Ġscience": 8771,
      "Ġneur": 8772,
      "ĠSur": 8773,
      "Ġefficiency": 8774,
      "å¤ªéĺ³": 8775,
      "ĠOnce": 8776,
      "Ġagree": 8777,
      "å®ĮåĸĦ": 8778,
      "Ġsmart": 8779,
      "Ġresolution": 8780,
      "æī£": 8781,
      "Ġ>=": 8782,
      "Ġholding": 8783,
      "ä¹Łæľī": 8784,
      "berg": 8785,
      "èĥ¶": 8786,
      "æİ¨å¹¿": 8787,
      "æĶ¯ä»ĺ": 8788,
      "Ġcontrolled": 8789,
      "Ġnav": 8790,
      "éĶ¦": 8791,
      "å¦»": 8792,
      "Ġvary": 8793,
      "ĠSec": 8794,
      "æĪĲéĥ½": 8795,
      "Ġunless": 8796,
      "ĠBen": 8797,
      "å§Ĩ": 8798,
      "Ġpharm": 8799,
      "while": 8800,
      "Ġretain": 8801,
      "Ġfinished": 8802,
      "night": 8803,
      "Ġindicates": 8804,
      "Ġformula": 8805,
      "itionally": 8806,
      "SI": 8807,
      "Ġpros": 8808,
      "Ġmarketing": 8809,
      "ymph": 8810,
      "Net": 8811,
      "Ġorganic": 8812,
      "Ġassume": 8813,
      "OH": 8814,
      "ĠCollege": 8815,
      "Ġelectrical": 8816,
      "ago": 8817,
      "ĠBel": 8818,
      "Ġåĩ¯åıĳä½ĵèĤ²": 8819,
      "BE": 8820,
      "æĸ½å·¥": 8821,
      "Char": 8822,
      "çĦ¡": 8823,
      "å®¢æľį": 8824,
      "Ġadding": 8825,
      "omer": 8826,
      "Ġmill": 8827,
      "ĠHam": 8828,
      "æį·": 8829,
      "åĵªä¸ª": 8830,
      "æĿ¥çľĭ": 8831,
      "orrow": 8832,
      "ĠOpen": 8833,
      "ä¸įäºĨ": 8834,
      "Ġdiet": 8835,
      "Response": 8836,
      "åħħåĪĨ": 8837,
      "ĠDel": 8838,
      "Ġfavorite": 8839,
      "GET": 8840,
      "ä¾§": 8841,
      "specific": 8842,
      "Ġharm": 8843,
      "Ġum": 8844,
      "Ġarms": 8845,
      "unc": 8846,
      "ĠUp": 8847,
      "Ġunf": 8848,
      "Ġcapable": 8849,
      "icated": 8850,
      "device": 8851,
      "Here": 8852,
      "unsigned": 8853,
      "Ġwaiting": 8854,
      "åİĤå®¶": 8855,
      "Ġunsigned": 8856,
      "åĦ¿ç«¥": 8857,
      "è¨Ī": 8858,
      "Ġstatist": 8859,
      "çļĦåıĳå±ķ": 8860,
      "ç»Łè®¡": 8861,
      "Ġwhom": 8862,
      "èĤ¡ä»½æľīéĻĲåħ¬åı¸": 8863,
      "ç¥Ŀ": 8864,
      "acebook": 8865,
      "Ġdepending": 8866,
      "Ġæ°¸": 8867,
      "{#": 8868,
      "æ¯«": 8869,
      "Ġrestaur": 8870,
      "æĭľ": 8871,
      "Exp": 8872,
      "Ġexchange": 8873,
      "Ġein": 8874,
      "apped": 8875,
      "ears": 8876,
      "èķ": 8877,
      "cat": 8878,
      "Ġcoe": 8879,
      "Ġexperimental": 8880,
      "Ġfuel": 8881,
      "åķĨåĬ¡": 8882,
      "ensed": 8883,
      "èĭ¹æŀľçīĪ": 8884,
      "Ġevolution": 8885,
      "Ġpartners": 8886,
      "Ġtrip": 8887,
      "Ste": 8888,
      "æĢª": 8889,
      "epsilon": 8890,
      "ĠDan": 8891,
      "real": 8892,
      "Ġappeared": 8893,
      "Ġmig": 8894,
      "çģ¾": 8895,
      "GP": 8896,
      "Ġsen": 8897,
      "cb": 8898,
      "Ġprocessor": 8899,
      "Result": 8900,
      "Ġhighlight": 8901,
      "Ġsymm": 8902,
      "Ġshoot": 8903,
      "æ³Ľ": 8904,
      "Ġsumm": 8905,
      "Ġscript": 8906,
      "Ġbra": 8907,
      "Ġmixed": 8908,
      "je": 8909,
      "Ġçº¿ä¸Ĭ": 8910,
      "Ġextended": 8911,
      "æķ´ä¸ª": 8912,
      "Ġdecreased": 8913,
      "Select": 8914,
      "acle": 8915,
      "Ġsequences": 8916,
      "IES": 8917,
      "Ġsegment": 8918,
      "Ġ>>": 8919,
      "Ġcontainer": 8920,
      "ĠJames": 8921,
      "Date": 8922,
      "mathrm": 8923,
      "Ġresponses": 8924,
      "________": 8925,
      "axis": 8926,
      "buffer": 8927,
      "OB": 8928,
      "Ġextension": 8929,
      "pload": 8930,
      "Ġdeveloping": 8931,
      "Ġwants": 8932,
      "ĠMany": 8933,
      "wid": 8934,
      "ĠPRO": 8935,
      "æĿ¥äºĨ": 8936,
      "Ġquery": 8937,
      "ituted": 8938,
      "çĻ»éĻĨ": 8939,
      "AAAA": 8940,
      "å¿ł": 8941,
      "Ġrepresented": 8942,
      "å¨ģå°¼æĸ¯": 8943,
      "CN": 8944,
      "æ·¡": 8945,
      "Ġachieved": 8946,
      "å°ĩ": 8947,
      "ç¬¬åĽĽ": 8948,
      "ĠType": 8949,
      "æĸ°åįİ": 8950,
      "åĳĪ": 8951,
      "è¾ī": 8952,
      "ailed": 8953,
      "çĿ¡": 8954,
      "ĠInternet": 8955,
      "ĠPress": 8956,
      "Ġfont": 8957,
      "ä¸ĭéĻį": 8958,
      "ji": 8959,
      "æĬµ": 8960,
      "éĻĦè¿ĳ": 8961,
      "Ġmissing": 8962,
      "é»İ": 8963,
      "ĠRel": 8964,
      "dule": 8965,
      "ÂŃ": 8966,
      "åĪĳ": 8967,
      "Ġexplain": 8968,
      "éĺ»": 8969,
      "ĠWindows": 8970,
      "ĠBook": 8971,
      "å¹¶ä¸Ķ": 8972,
      "ĠId": 8973,
      "ĠChinese": 8974,
      "Â«": 8975,
      "ĠSen": 8976,
      "çļĨ": 8977,
      "Ġå¤§åıĳå¿«": 8978,
      "Ġmist": 8979,
      "è¶ĬæĿ¥": 8980,
      "å¤§éĩı": 8981,
      "å®ļçļĦ": 8982,
      "ä¸°å¯Į": 8983,
      "Ġdiscussion": 8984,
      "lam": 8985,
      "Ġearth": 8986,
      "èĩªæ²»": 8987,
      "asp": 8988,
      "ç¯®": 8989,
      "åħ¬åħ±": 8990,
      "ymbol": 8991,
      "ĠWARR": 8992,
      "ontal": 8993,
      "åħ¬å®ī": 8994,
      "ĠReturn": 8995,
      "Ġcoupled": 8996,
      "Ġanalyzed": 8997,
      "çĽĳç®¡": 8998,
      "VD": 8999,
      "Back": 9000,
      ")),": 9001,
      "ĠPost": 9002,
      "bu": 9003,
      "Ġparties": 9004,
      "Ġrecords": 9005,
      "css": 9006,
      "æŁ¥çľĭ": 9007,
      "Ġpositions": 9008,
      "ye": 9009,
      "åıĬæĹ¶": 9010,
      "................": 9011,
      "Ġrepresentation": 9012,
      "Ġconsult": 9013,
      "Ġsettings": 9014,
      "çĮ«": 9015,
      "ĠDuring": 9016,
      "æ±¤": 9017,
      "Ġelev": 9018,
      "Î¹": 9019,
      "å·¡": 9020,
      "Ġsubjects": 9021,
      "Ġneighbor": 9022,
      "Ġaffected": 9023,
      "Handler": 9024,
      "Ġidentity": 9025,
      "æĬ½": 9026,
      "Ġpowerful": 9027,
      "æľĢè¿ĳ": 9028,
      "Ġemployees": 9029,
      "æĽ¸": 9030,
      "Ġfif": 9031,
      "ĠCanada": 9032,
      "Ġrelax": 9033,
      "anes": 9034,
      "ulin": 9035,
      "æİĴåĪĹ": 9036,
      "ptide": 9037,
      "æŃ£å¸¸": 9038,
      "Ġthin": 9039,
      "Ġkill": 9040,
      "ĠTime": 9041,
      "Ġideal": 9042,
      "ĠGreen": 9043,
      "Ġfurn": 9044,
      "è¶ĬæĿ¥è¶Ĭ": 9045,
      "how": 9046,
      "Ġî¢": 9047,
      "èĢģçīĮ": 9048,
      "chang": 9049,
      "Ġprobability": 9050,
      "oyal": 9051,
      "Ġassociation": 9052,
      "Ġelim": 9053,
      "å¨±ä¹Ĳå¹³åı°": 9054,
      "Ġwed": 9055,
      "éĥ½æľī": 9056,
      "å¹¶ä¸į": 9057,
      "ĠÂ§": 9058,
      "æĭĵ": 9059,
      "Ġamino": 9060,
      "ĠccåĽ½éĻħ": 9061,
      "MF": 9062,
      "fra": 9063,
      "Ġowners": 9064,
      "Ġguarant": 9065,
      "Ġreceptor": 9066,
      "å¯Ĵ": 9067,
      "ervices": 9068,
      "Ġeasier": 9069,
      "Ġorient": 9070,
      "Ġbalance": 9071,
      "Why": 9072,
      "Number": 9073,
      "Ġspend": 9074,
      "çĤ¸": 9075,
      "append": 9076,
      "Ġéķ¿": 9077,
      "iate": 9078,
      "Buffer": 9079,
      "Ġpieces": 9080,
      "çİ°éĩĳç½ĳ": 9081,
      "Ġter": 9082,
      "Ġsemicon": 9083,
      "DI": 9084,
      "ĠInstitute": 9085,
      "ĠĠĠĠĠĠĠĠĠĠĠĠĠĠĠĠĠĠĠĠĠĠĠĠĠĠĠĠĠĠĠ": 9086,
      "what": 9087,
      "Ġregul": 9088,
      "Ġcontained": 9089,
      "main": 9090,
      "only": 9091,
      "rer": 9092,
      "Ġbaby": 9093,
      "è³¼": 9094,
      "ĠJesus": 9095,
      "åįģäºĮ": 9096,
      "BL": 9097,
      "å®ı": 9098,
      "Ġimportance": 9099,
      "æĢİæł·": 9100,
      "Ġcos": 9101,
      "ĠIP": 9102,
      "åĲĪåĲĮ": 9103,
      "antic": 9104,
      "å¿Ļ": 9105,
      "Ġstories": 9106,
      "acket": 9107,
      "Ġappoint": 9108,
      "ĠCompany": 9109,
      "ä¸»ç®¡": 9110,
      "care": 9111,
      "Ġextremely": 9112,
      "Ġinfo": 9113,
      "åĲįç§°": 9114,
      "Ġfilms": 9115,
      "Ġtraffic": 9116,
      "æ¬§æ´²": 9117,
      "ĠèµĮéĴ±": 9118,
      "Ġherself": 9119,
      "esis": 9120,
      "Ġcart": 9121,
      "ĠVir": 9122,
      "Ġsalt": 9123,
      "éĵľ": 9124,
      "she": 9125,
      "åĬłå·¥": 9126,
      "First": 9127,
      "æ®Ĭ": 9128,
      "Ġnation": 9129,
      "Ġfilled": 9130,
      "Ġdecrease": 9131,
      "åĿ¦": 9132,
      "Spec": 9133,
      "burg": 9134,
      "âĳ": 9135,
      "çĬ¶æĢģ": 9136,
      "Ġantibody": 9137,
      "Ġparallel": 9138,
      "æķĮ": 9139,
      "ĠIsrael": 9140,
      "æĮĩåĩº": 9141,
      "ĠPC": 9142,
      "è´¹çĶ¨": 9143,
      "æĪĲç»©": 9144,
      "éĥŃ": 9145,
      "''\\": 9146,
      "ÅĤ": 9147,
      "bool": 9148,
      "è¿¹": 9149,
      "å®ĺæĸ¹ä¸ĭè½½": 9150,
      "server": 9151,
      "DU": 9152,
      "åĬ¨åĬĽ": 9153,
      "Ġoccurs": 9154,
      "Ġconven": 9155,
      "ferent": 9156,
      "æ²Ī": 9157,
      "sole": 9158,
      "ivo": 9159,
      "Ġinnov": 9160,
      "ĠRich": 9161,
      "Ġåĩ¯åıĳå®ĺç½ĳ": 9162,
      "çĮª": 9163,
      "Ġequivalent": 9164,
      "*~": 9165,
      "induced": 9166,
      "è¦Ĩ": 9167,
      "åĳĺå·¥": 9168,
      "Ġcorpor": 9169,
      "Read": 9170,
      "itness": 9171,
      "å¦¹": 9172,
      "åĿ¡": 9173,
      "aft": 9174,
      "åħ¬åı¸çļĦ": 9175,
      "åħ¬äº¤": 9176,
      "Ġdiagnosis": 9177,
      "mic": 9178,
      "å¥½è¿Ĳ": 9179,
      "Ġguess": 9180,
      "Ġpin": 9181,
      "dy": 9182,
      "methyl": 9183,
      "Run": 9184,
      "Ġbag": 9185,
      "åħ¥åı£": 9186,
      "ĠLord": 9187,
      "duc": 9188,
      "Ġbehavi": 9189,
      "Ġinflamm": 9190,
      "å¥Ķ": 9191,
      "åĬłåħ¥": 9192,
      "ĠãĢĬ": 9193,
      "Ġpure": 9194,
      "åŃ£åº¦": 9195,
      "å°Ī": 9196,
      "ĠMem": 9197,
      "åŁºåľ°": 9198,
      "åĩºåı£": 9199,
      "Ġexperienced": 9200,
      "æ¯Ķå¦Ĥ": 9201,
      "Ġplasma": 9202,
      "åıĳå±ķçļĦ": 9203,
      "Ġstars": 9204,
      "Ġbt": 9205,
      "Ġfacilit": 9206,
      "Ġpurposes": 9207,
      "ĠçľŁéĴ±": 9208,
      "enu": 9209,
      "Ġexplained": 9210,
      "æĺ¯çľŁçļĦ": 9211,
      "ç½ļ": 9212,
      "å£ģ": 9213,
      "Ġå¹¸è¿Ĳ": 9214,
      "header": 9215,
      "é©¶": 9216,
      "ĠæĪĳ": 9217,
      "ä¸Ģç§į": 9218,
      "abet": 9219,
      "Ġmeasurements": 9220,
      "Well": 9221,
      "çİĽ": 9222,
      "tra": 9223,
      "dat": 9224,
      "ĠCa": 9225,
      "ishes": 9226,
      "Ġhole": 9227,
      "FS": 9228,
      "Pol": 9229,
      "{\"": 9230,
      "æĪĲåĳĺ": 9231,
      "Check": 9232,
      "Ġloved": 9233,
      "Ġmouse": 9234,
      "Are": 9235,
      "Query": 9236,
      "Ġschools": 9237,
      "å®īæİĴ": 9238,
      "Ġbreast": 9239,
      "iveness": 9240,
      "Ġsecure": 9241,
      "ĠSuper": 9242,
      "å¨±ä¹Ĳå®ĺç½ĳ": 9243,
      "æľºåĪ¶": 9244,
      "description": 9245,
      "ifies": 9246,
      "Ġleaving": 9247,
      "acent": 9248,
      "ORD": 9249,
      "ĠJew": 9250,
      "Ġmechanisms": 9251,
      "Ġwireless": 9252,
      "Ġchosen": 9253,
      "è§ĦåĪĻ": 9254,
      "Ġhoriz": 9255,
      "Ġcab": 9256,
      "ĠJe": 9257,
      "ç»Łä¸Ģ": 9258,
      "apers": 9259,
      "æµı": 9260,
      "cohol": 9261,
      "Ġdefendant": 9262,
      "è¯ĳ": 9263,
      "Ġsquare": 9264,
      "Ġestimated": 9265,
      "Ġrespond": 9266,
      "ĠAtt": 9267,
      "Ġgoals": 9268,
      "ĉĉĉĉĉĉĉ": 9269,
      "elled": 9270,
      "Ġdistrict": 9271,
      "æ¶Īè´¹èĢħ": 9272,
      "Part": 9273,
      "Ġhusband": 9274,
      "ĠGerman": 9275,
      "ĠSupp": 9276,
      "aneous": 9277,
      "æ½ľ": 9278,
      "ĠBoth": 9279,
      "Ġemb": 9280,
      "Ġspectrum": 9281,
      "ï½ŀ": 9282,
      "Ġimplemented": 9283,
      "Ġsurvival": 9284,
      "éº¦": 9285,
      "ĠRepublic": 9286,
      "ĠEv": 9287,
      "Ġchanging": 9288,
      "èŃī": 9289,
      "Ġshut": 9290,
      "you": 9291,
      "Frame": 9292,
      "ocity": 9293,
      "ä»¥åĲİ": 9294,
      "Ġdisplayed": 9295,
      "Ġforming": 9296,
      "ti": 9297,
      "Ãł": 9298,
      "ĠWashington": 9299,
      "Box": 9300,
      "è°ĭ": 9301,
      "Content": 9302,
      "çĽ®çļĦ": 9303,
      "Ġproport": 9304,
      "Ġdanger": 9305,
      "äººå£«": 9306,
      "Ġextends": 9307,
      "è§ĦèĮĥ": 9308,
      ",âĢĻ": 9309,
      "å°±ä¼ļ": 9310,
      "Ġenhance": 9311,
      "circ": 9312,
      "Ġlearned": 9313,
      "Ġmuscle": 9314,
      "allow": 9315,
      "Ġallowing": 9316,
      "éĢŁåº¦": 9317,
      "Ġstated": 9318,
      "Ġthereby": 9319,
      "ĠCong": 9320,
      "èĿ": 9321,
      "æķı": 9322,
      "ĠSam": 9323,
      "Ġfol": 9324,
      "[\"": 9325,
      "Ġfarm": 9326,
      "Ġice": 9327,
      "unit": 9328,
      "ĠGovern": 9329,
      "Ġ),": 9330,
      "åĸĿ": 9331,
      "åįıè®®": 9332,
      "Ġsociety": 9333,
      "Ġcorrelation": 9334,
      "Ġhypot": 9335,
      "æĭĽåķĨ": 9336,
      "sys": 9337,
      "ENSE": 9338,
      "è§Ĥçľĭ": 9339,
      "ãĢĤï¼Ī": 9340,
      "dict": 9341,
      "after": 9342,
      "edia": 9343,
      "apy": 9344,
      "èº«ä»½": 9345,
      "Ġnod": 9346,
      "Ġcoff": 9347,
      "Ġforces": 9348,
      "ä¸ĭæĿ¥": 9349,
      "Ġkin": 9350,
      "roke": 9351,
      "Ġadvanced": 9352,
      "ĠUsing": 9353,
      "Ġfiled": 9354,
      "Ġraise": 9355,
      "Ġfaith": 9356,
      "æŃ¦æ±ī": 9357,
      "Ġprove": 9358,
      "PRE": 9359,
      "é¬¼": 9360,
      "}=": 9361,
      "Ġgro": 9362,
      "Ġåīį": 9363,
      "Any": 9364,
      "è¿ĩç¨ĭä¸Ń": 9365,
      "bling": 9366,
      "æķĻæİĪ": 9367,
      "search": 9368,
      "åĪĬ": 9369,
      "Ġhelped": 9370,
      "å°º": 9371,
      "Ġconfirmed": 9372,
      "NAME": 9373,
      "ç»´æĬ¤": 9374,
      "ĠTex": 9375,
      "EC": 9376,
      "Ġahead": 9377,
      "Ġseconds": 9378,
      "Ġseat": 9379,
      "ĠInte": 9380,
      "ĠWell": 9381,
      "Ġpolar": 9382,
      "agen": 9383,
      "ä¼ļåĳĺ": 9384,
      "Ġdeb": 9385,
      "èº«ä½ĵ": 9386,
      "Ġmanager": 9387,
      "Ġfourth": 9388,
      "fc": 9389,
      "prop": 9390,
      "chron": 9391,
      "çļĦæĥħåĨµ": 9392,
      "ĠPhys": 9393,
      "ingly": 9394,
      "æĮĩæķ°": 9395,
      "reated": 9396,
      "Ġton": 9397,
      "ructure": 9398,
      "Ġcomments": 9399,
      "Ġefforts": 9400,
      "mg": 9401,
      "Ġtight": 9402,
      "EV": 9403,
      "Ġstable": 9404,
      "Default": 9405,
      "Ġmel": 9406,
      "uty": 9407,
      "Ġdispl": 9408,
      "abil": 9409,
      "èĩªçĶ±": 9410,
      "Ġdirector": 9411,
      "Ġlisted": 9412,
      "ĠAustralia": 9413,
      "ĠMart": 9414,
      "æ¶Ķ": 9415,
      "Ġrepeated": 9416,
      "lets": 9417,
      "Ġstrugg": 9418,
      "Ġtor": 9419,
      "Ġresist": 9420,
      "Ġdrugs": 9421,
      "æŀª": 9422,
      "Ġdegrees": 9423,
      "éªĹå±Ģ": 9424,
      "Ġperspective": 9425,
      "çİ¯ä¿Ŀ": 9426,
      "Ġrecording": 9427,
      "å´ĩ": 9428,
      "ita": 9429,
      "Ġprices": 9430,
      "rows": 9431,
      "ä¸ĸçºª": 9432,
      "åĦª": 9433,
      "æ²Ĵ": 9434,
      "æ¸ł": 9435,
      "ĠæĹ©é¤Ĳ": 9436,
      "ĠRober": 9437,
      "xygen": 9438,
      "*\\": 9439,
      "Rem": 9440,
      "åł±": 9441,
      "lectric": 9442,
      "Ag": 9443,
      "æĪĲäºĨ": 9444,
      "Ġcontinuous": 9445,
      "Ġstopped": 9446,
      "Ġdress": 9447,
      "Ġanc": 9448,
      "aren": 9449,
      "rich": 9450,
      "Ġsea": 9451,
      "Ġcm": 9452,
      "æĿľ": 9453,
      "éĿ¢å¯¹": 9454,
      "Ġsand": 9455,
      "èĢĲ": 9456,
      "åıªèĥ½": 9457,
      "ĠAp": 9458,
      "orders": 9459,
      "Ġsemiconductor": 9460,
      "Ġdisclosure": 9461,
      "Ġconflic": 9462,
      "Ġblocks": 9463,
      "àª": 9464,
      "poss": 9465,
      "mut": 9466,
[...]
